▁xxunk	0
▁xxpad	0
▁xxbos	0
▁xxeos	0
▁xxfld	0
▁xxmaj	0
▁xxup	0
▁xxrep	0
▁xxwrep	0
<unk>	0
▁	-1.48856
▁de	-2.93981
,	-3.22944
▁/	-3.67859
.	-3.87943
▁no	-3.97471
▁e	-4.13311
▁do	-4.22969
:	-4.24264
▁da	-4.31128
o	-4.52182
▁a	-4.55668
s	-4.75775
a	-5.1214
▁o	-5.14604
-	-5.23828
▁-	-5.30424
▁federal	-5.37302
▁distrito	-5.41378
▁em	-5.46819
▁para	-5.54653
▁(	-5.55944
▁art	-5.58185
;	-5.70046
▁matrícula	-5.7227
)	-5.75355
▁processo	-5.76402
▁que	-5.89981
▁com	-5.9026
r	-5.93723
▁01	-5.94334
▁na	-5.95556
▁lei	-5.95837
▁1	-6.10392
▁por	-6.13628
▁secretaria	-6.13635
▁estado	-6.13966
▁df	-6.1628
▁pelo	-6.16619
▁2018,	-6.21798
▁artigo	-6.23272
$	-6.25561
▁data	-6.33376
▁decreto	-6.34164
▁dos	-6.37046
▁das	-6.39105
▁inciso	-6.39845
▁4	-6.40936
▁n	-6.41261
▁ao	-6.42427
▁valor	-6.47349
▁pela	-6.48564
se	-6.48619
▁conforme	-6.50792
▁2	-6.51073
▁objeto	-6.53623
▁12	-6.53895
▁dezembro	-6.54315
▁r	-6.55665
▁uso	-6.58468
▁dias	-6.61083
e	-6.62074
8	-6.6268
▁portaria	-6.63827
l	-6.67006
▁à	-6.6886
▁serviço	-6.69886
▁os	-6.70144
▁silva	-6.70483
▁saúde	-6.70672
▁10	-6.70867
▁resolve	-6.7122
▁janeiro	-6.71295
▁0	-6.71872
▁3	-6.73279
▁atribuições	-6.75494
▁2019,	-6.76526
▁sua	-6.78206
▁reais	-6.81382
▁sei	-6.81861
▁dodf	-6.82032
▁i	-6.85443
▁prazo	-6.87087
(	-6.87518
°	-6.87825
▁administração	-6.88775
▁como	-6.88779
▁2019	-6.89468
m	-6.90521
▁2018	-6.91001
▁período	-6.91592
▁mil	-6.9263
▁contrato	-6.95295
▁ii	-6.95431
▁30	-6.95545
▁ou	-6.96494
▁2019.	-6.97406
▁cnpj	-6.98479
▁gestão	-6.98544
▁23	-6.98929
▁empresa	-6.99447
▁11	-6.99753
▁02	-7.00382
▁nos	-7.01127
▁as	-7.01352
),	-7.0239
▁5	-7.03087
▁ltda	-7.04686
▁aquisição	-7.05051
▁04	-7.05088
▁comissão	-7.06796
▁"	-7.0797
▁ordem	-7.09169
da	-7.09278
▁cargo	-7.10503
▁publicação	-7.11634
▁vigência	-7.11807
▁designar	-7.11827
ção	-7.11854
▁03	-7.12117
▁edital	-7.13051
▁ses	-7.13864
▁lhe	-7.14377
▁15	-7.15962
▁brasília	-7.16745
c	-7.16954
do	-7.17234
▁santos	-7.17307
h	-7.17491
▁publicada	-7.17735
).	-7.18255
▁partes	-7.18638
▁material	-7.19051
9	-7.19116
2	-7.19842
▁complementar	-7.20799
▁07	-7.21026
▁termo	-7.22894
▁serviços	-7.23956
b	-7.2631
▁2017,	-7.27769
▁assinatura	-7.27912
▁21	-7.2856
▁oliveira	-7.28793
▁09	-7.29275
▁registro	-7.29281
▁16	-7.30051
▁29	-7.3171
▁símbolo	-7.33366
▁termos	-7.3403
▁18	-7.34705
▁17	-7.35095
▁c	-7.35256
▁geral	-7.37235
▁06	-7.37446
▁empenho	-7.38238
df	-7.39307
▁esta	-7.39781
▁05	-7.39911
▁regional	-7.41228
os	-7.41303
▁2018.	-7.4132
▁14	-7.42335
",	-7.43339
▁lima	-7.4346
▁entra	-7.43656
▁2018-	-7.44432
▁28	-7.44618
▁2013	-7.46365
▁20	-7.4638
x	-7.46751
▁servidor	-7.47466
▁f	-7.48143
▁militar	-7.48426
▁contar	-7.48457
▁08	-7.48689
br	-7.4898
▁22	-7.51001
▁vigor	-7.51995
is	-7.52863
▁24	-7.53167
ndo	-7.55081
▁2016,	-7.55152
▁natureza	-7.55432
7	-7.55546
▁trabalho	-7.56169
▁25	-7.56375
▁8.666	-7.56712
▁abri	-7.57087
▁às	-7.57169
▁19	-7.58139
▁pública	-7.59456
▁especial	-7.59602
▁centavos	-7.59653
▁13	-7.5996
▁26	-7.60325
▁ju	-7.60625
▁administrativo	-7.60792
▁suas	-7.60943
▁confere	-7.61665
▁programa	-7.62271
▁se	-7.6253
▁souza	-7.62684
▁2011,	-7.63163
▁meses	-7.63386
▁diretor	-7.6343
▁31	-7.64936
lho	-7.65222
▁coordenação	-7.65262
geral	-7.65405
▁ser	-7.65532
▁educação	-7.66273
é	-7.66579
▁orçamentária	-7.67039
▁maria	-7.6763
▁pedido	-7.69035
▁despesa	-7.69268
▁titular	-7.69358
▁disposto	-7.694
▁presente	-7.71245
▁total	-7.72747
ão	-7.7316
▁entrega	-7.73519
▁5-1	-7.74632
▁partir	-7.75041
▁polícia	-7.75041
pós	-7.75428
▁servidores	-7.75716
ne	-7.75832
3	-7.76131
0	-7.77671
▁ata	-7.78413
▁executor	-7.78669
i	-7.78883
4	-7.78931
▁junho	-7.78986
ever	-7.79301
▁fornecimento	-7.79389
▁legal	-7.7939
▁2017	-7.80052
gov	-7.80202
▁constante	-7.80222
eiro	-7.80792
▁são	-7.80863
▁pereira	-7.8143
▁meio	-7.81436
▁vista	-7.81602
6	-7.8188
▁item	-7.81906
▁novembro	-7.82259
▁intermédio	-7.83093
▁w	-7.83642
▁qualidade	-7.8479
▁exercer	-7.84809
▁chefe	-7.85651
▁27	-7.85784
ww	-7.86508
es	-7.86678
u	-7.86809
▁página	-7.87818
▁§	-7.88006
▁quinquênio	-7.8801
▁ferreira	-7.88256
tendo	-7.8833
▁preço	-7.88727
n	-7.89178
▁presidente	-7.89572
▁público	-7.9007
▁ato	-7.90513
00	-7.90526
as	-7.90761
1	-7.9117
▁contratada	-7.91401
▁preços	-7.92281
▁técnico	-7.92498
▁apoio	-7.92782
▁rodrigues	-7.93248
ções	-7.94129
▁execução	-7.94166
▁autorização	-7.9417
▁demais	-7.94638
mente	-7.94908
▁recebimento	-7.95108
▁2018;	-7.95588
▁carlo	-7.95613
á	-7.96545
▁secretário	-7.96613
▁considerando	-7.97017
▁referente	-7.97018
▁diretoria	-7.97549
ia	-7.97669
▁fonte	-7.98551
▁publicado	-7.98967
▁corridos	-7.99456
▁base	-7.99569
▁beneficiário	-7.99951
▁subsecretário	-8.00449
▁v	-8.0086
▁legais	-8.00949
▁substituir	-8.01461
▁conferida	-8.01481
▁iii	-8.02129
▁març	-8.02974
▁onde	-8.03529
▁servidora	-8.03765
▁matricula	-8.04002
▁maio	-8.04193
▁subsecretaria	-8.04521
gdf	-8.04525
▁nota	-8.04815
▁desenvolvimento	-8.05041
▁cpf	-8.05042
"	-8.05597
▁sem	-8.05598
▁será	-8.0567
▁não	-8.06487
▁vi	-8.06488
▁seus	-8.07012
no	-8.07544
▁jos	-8.08037
d	-8.08487
▁2014,	-8.09388
▁32.598	-8.09551
▁fac	-8.09862
▁7	-8.10087
ou	-8.10444
▁alves	-8.10957
▁"...	-8.11182
▁2010,	-8.11289
ses	-8.11305
▁site	-8.1152
5	-8.11877
▁entre	-8.12102
▁dia	-8.12473
▁social	-8.12634
na	-8.1269
t	-8.12705
▁eletrônico	-8.1344
▁outubro	-8.13766
▁pam	-8.13799
▁afm	-8.13869
▁políticas	-8.13922
▁fornecedor	-8.14872
▁lê	-8.14916
▁ribeiro	-8.14928
▁setembro	-8.15491
▁aprovado	-8.15496
840,	-8.15986
▁beatri	-8.16072
▁100%	-8.16076
▁2019;	-8.17272
▁contados	-8.18705
p	-8.19072
▁recursos	-8.19114
▁atividades	-8.19148
▁aditivo	-8.19633
▁públicas	-8.19993
▁prestação	-8.2024
▁até	-8.20242
▁licitação	-8.21916
▁gerência	-8.22081
▁1°	-8.22539
▁suplente	-8.22701
▁costa	-8.23328
0001	-8.23345
▁instrução	-8.23427
▁840	-8.23499
▁orçamento	-8.2367
▁quatro	-8.23838
▁concessão	-8.23955
▁tem	-8.23956
▁conexão	-8.23958
trinta	-8.2412
▁lotado	-8.24587
▁acordo	-8.24588
f	-8.24985
▁parágrafo	-8.25641
▁artigos	-8.25947
▁quadro	-8.26529
▁férias	-8.2716
▁prorrogação	-8.27166
▁lote	-8.27245
to	-8.27383
▁pregão	-8.27814
▁gaut	-8.27815
▁departamento	-8.27818
▁signatários	-8.27856
▁celebrado	-8.28479
▁ne	-8.2857
▁forma	-8.29027
▁sousa	-8.29135
▁analista	-8.29802
▁bem	-8.29814
▁função	-8.29817
▁sistema	-8.30267
▁modalidade	-8.30771
▁governamental	-8.31147
▁alínea	-8.31828
▁aos	-8.32087
▁norte	-8.32516
centos	-8.32646
▁unidade	-8.3303
▁2017-	-8.33312
▁exercício	-8.33313
▁pessoal	-8.33905
12	-8.34652
▁nas	-8.34687
41,	-8.35133
▁regimento	-8.353
tenta	-8.36019
▁dotação	-8.3611
▁gerente	-8.36726
▁nove	-8.36838
▁planejamento	-8.37444
leia	-8.37551
cento	-8.37912
▁competência	-8.38168
▁motivo	-8.38168
▁interessado	-8.38761
▁aposentadoria	-8.38898
▁araújo	-8.38898
▁licença	-8.39633
▁único	-8.39633
doze	-8.39633
01	-8.39832
▁informações	-8.39964
▁2019-	-8.40141
▁0001-	-8.40278
g	-8.40321
y	-8.40805
▁oitenta	-8.41079
que	-8.41316
▁me	-8.41567
▁recurso	-8.41768
▁gomes	-8.41872
30	-8.42059
▁setor	-8.42167
▁interno	-8.42638
▁trata	-8.42738
▁qual	-8.43302
▁iv	-8.4351
de	-8.43544
▁sob	-8.43613
ério	-8.44139
▁ônus	-8.44162
▁cne	-8.44328
20	-8.44509
▁itens	-8.45256
▁6	-8.46128
▁contratação	-8.46517
▁local	-8.47284
pe	-8.47614
▁anexo	-8.47862
▁2015,	-8.48604
▁2013,	-8.4866
▁conceder	-8.49266
▁mat	-8.4958
▁central	-8.49891
entos	-8.50069
▁abaixo	-8.50539
▁atendimento	-8.50539
▁nomear	-8.50547
25	-8.51064
24	-8.5107
rá	-8.51164
▁lopes	-8.51365
ta	-8.51836
▁propostas	-8.51983
▁fazenda	-8.52571
▁abertura	-8.52815
19	-8.53024
▁espécie	-8.53039
▁distribuição	-8.53041
02	-8.5339
▁civil	-8.53886
▁cultura	-8.54326
▁ajuste	-8.54741
▁realização	-8.54741
▁fundo	-8.5476
▁brasil	-8.54864
11	-8.5525
▁ceb	-8.55771
▁distrital	-8.56472
▁conjunto	-8.56476
▁martins	-8.56511
▁autos	-8.5689
29	-8.57026
▁desta	-8.57261
la	-8.57517
▁disposições	-8.58235
um	-8.58529
▁companhia	-8.59127
▁assistência	-8.59128
▁localidade	-8.59139
▁x	-8.59899
▁2011	-8.6002
▁paulo	-8.60128
1,	-8.60145
▁horas	-8.60213
▁dfg	-8.60302
▁1994	-8.60973
▁pág	-8.61849
▁ensino	-8.61855
▁estimado	-8.61855
▁comércio	-8.61861
▁endereço	-8.61876
▁oficial	-8.61879
▁soares	-8.62266
comprasnet	-8.62782
▁2017.	-8.62898
▁conta	-8.63503
▁referência	-8.63715
▁fiscalização	-8.63717
▁tempo	-8.63747
▁assunto	-8.63785
▁agente	-8.64437
▁barbosa	-8.64659
▁eireli	-8.64659
▁multa	-8.6466
▁combinado	-8.64745
);	-8.64781
10	-8.64922
04	-8.65006
▁agost	-8.65357
43	-8.65606
▁ceilândia	-8.65611
▁nascimento	-8.65611
▁pessoas	-8.66049
▁2016	-8.66467
▁contas	-8.66494
▁assessor	-8.66527
▁impedimentos	-8.66586
▁horário	-8.67129
▁q	-8.67464
conformidade	-8.67544
▁atende	-8.67544
▁2010;	-8.67759
70	-8.68136
▁p	-8.68172
▁cinco	-8.68247
▁permanente	-8.68524
▁região	-8.68524
▁mais	-8.68567
▁vinte	-8.68588
▁casa	-8.68759
▁dois	-8.68795
ra	-8.6891
▁substituto	-8.68963
▁luiz	-8.68965
▁ter	-8.68967
▁seis	-8.69161
▁ambiente	-8.69514
▁materiais	-8.69514
▁representante	-8.69608
2,	-8.6972
05	-8.69747
▁cinquenta	-8.70264
te	-8.70267
▁almeida	-8.70514
▁especificações	-8.70525
▁2008	-8.71333
66	-8.71411
duzent	-8.71525
▁carvalho	-8.71541
▁candidato	-8.71675
▁93	-8.72046
▁ações	-8.7208
▁gonçalves	-8.72545
▁anos	-8.73035
▁re	-8.73438
▁concedeu	-8.73575
▁culturais	-8.73646
▁três	-8.73925
▁efeito	-8.74373
▁sessenta	-8.74595
▁noventa	-8.74615
▁financeiro	-8.75261
▁diretora	-8.75404
50	-8.75416
▁deste	-8.75455
▁poder	-8.75989
▁67,	-8.76355
49	-8.76421
▁slu	-8.76451
▁41	-8.76799
▁administrativa	-8.76936
▁necessidade	-8.76941
▁área	-8.76943
90	-8.76968
▁seguintes	-8.77419
▁quarenta	-8.77777
▁cessão	-8.77809
▁diário	-8.7781
▁atuarem	-8.77821
caesb	-8.77912
6,	-8.78678
▁regimentais	-8.78897
▁trânsito	-8.78903
▁um	-8.78967
15	-8.7897
▁ambiental	-8.79072
▁produtos	-8.79072
47	-8.79241
▁sul	-8.79396
▁aplicada	-8.80003
40	-8.8005
▁esporte	-8.80203
er	-8.80257
72	-8.80328
▁técnica	-8.80413
26	-8.80523
5,	-8.80588
▁delega	-8.80748
80	-8.80763
▁trinta	-8.80814
08	-8.80965
▁2°	-8.81144
▁classe	-8.81146
52	-8.8162
▁ex	-8.81668
▁compras	-8.8177
▁pmdf	-8.81811
▁projetos	-8.81959
▁caesb	-8.82122
▁lazer	-8.8223
presidente	-8.82273
▁2016.	-8.82408
▁obras	-8.82462
▁torna	-8.83101
▁andrade	-8.83366
▁controle	-8.83366
▁segurança	-8.83366
▁rocha	-8.83384
▁código	-8.83452
60	-8.83523
▁co	-8.83668
j	-8.83865
co	-8.83981
▁incisos	-8.84048
▁lt	-8.84082
▁centro	-8.84534
▁seja	-8.84544
▁paula	-8.84569
▁prevista	-8.84812
▁proposta	-8.84814
mento	-8.84913
em	-8.8546
▁certidão	-8.85678
▁professor	-8.85678
▁epp	-8.85878
34	-8.8592
sga	-8.8593
7,	-8.85993
▁projeto	-8.86048
▁00060-	-8.86374
▁2009	-8.86795
▁justiça	-8.86855
▁âmbito	-8.86855
▁relatório	-8.86855
▁100	-8.8687
▁contratante	-8.87047
▁notificado	-8.87118
▁núcleo	-8.87383
28	-8.87404
48	-8.87563
com	-8.87566
▁2012,	-8.87929
▁autua	-8.87964
▁sala	-8.88036
▁acima	-8.88045
▁filho	-8.88049
▁publicidade	-8.88241
quatro	-8.88268
mar	-8.88736
14	-8.88948
▁106	-8.89124
09	-8.89166
▁manutenção	-8.8925
▁pregoeira	-8.8925
▁fundação	-8.89257
06	-8.89506
▁transporte	-8.896
▁classificação	-8.89791
...",	-8.89846
▁quin	-8.89896
▁1.	-8.90395
▁borges	-8.90469
▁médico	-8.9047
▁foi	-8.90478
z	-8.90614
ni	-8.90767
▁revoga	-8.91052
▁conclus	-8.91082
91	-8.91121
▁60	-8.91294
45	-8.91456
36	-8.9161
▁gabinete	-8.91704
▁deverá	-8.91714
▁fernandes	-8.91741
▁autuação	-8.91789
▁suag	-8.91894
18	-8.9197
99	-8.91992
0.	-8.92364
62	-8.92562
▁bloco	-8.92954
▁henrique	-8.92954
sessenta	-8.9298
▁sobre	-8.9298
▁plano	-8.92989
son	-8.93016
▁consta	-8.93296
▁brb	-8.93583
▁oito	-8.93624
▁2014	-8.93653
63	-8.93697
35	-8.93765
4.	-8.94003
▁teixeira	-8.94224
▁anexos	-8.94369
erio	-8.94387
.1	-8.94407
ar	-8.94537
▁afastamentos	-8.94569
▁etapa	-8.94624
▁67	-8.94678
▁seu	-8.94887
▁sete	-8.94929
74	-8.94958
57	-8.95
-14,	-8.95284
▁rafael	-8.95502
alterada	-8.9565
27	-8.95747
▁evento	-8.95919
▁ana	-8.96196
53	-8.96507
55	-8.9668
▁castro	-8.96801
▁joão	-8.96803
16	-8.9723
▁relacionados	-8.97343
▁é	-8.97481
▁uo	-8.97541
64	-8.97686
q	-8.97687
lo	-8.97696
58	-8.97762
75	-8.98069
000	-8.98072
▁fernand	-8.98076
▁cardoso	-8.98116
▁vieira	-8.98123
▁andar	-8.98129
▁melo	-8.98144
▁marco	-8.98147
▁cadastro	-8.98255
▁45	-8.98261
▁emissão	-8.98327
▁prêmio	-8.98381
▁apresentar	-8.98711
▁con	-8.98947
▁atuar	-8.99437
▁consoante	-8.9945
▁rural	-8.9945
▁tipo	-8.9945
▁tornar	-8.99761
▁documentos	-8.99853
▁despesas	-8.99935
▁seguinte	-8.99936
65	-9.00021
92	-9.00181
54	-9.00338
76	-9.00511
▁finanças	-9.00801
▁respectivamente	-9.00826
▁mg	-9.01321
▁escolar	-9.01358
▁previstas	-9.01819
▁pelos	-9.01961
51	-9.02133
▁básica	-9.02652
83	-9.03092
▁trabalhos	-9.03129
▁padrão	-9.0356
mu	-9.03566
▁superintendente	-9.03787
31	-9.03887
32	-9.04604
87	-9.04905
42	-9.04935
▁cep	-9.04941
▁marcel	-9.04969
▁jose	-9.05286
le	-9.05515
59	-9.05583
69	-9.05639
▁áreas	-9.06116
▁exonerar	-9.06116
▁eduard	-9.06397
▁mendes	-9.06397
▁93.	-9.06611
dos	-9.06834
0,00	-9.07501
▁observa	-9.07766
▁33.90.	-9.07774
▁menor	-9.07849
▁39.002	-9.07851
37	-9.08135
94	-9.08177
▁g	-9.08314
03	-9.08806
67	-9.09113
▁decisão	-9.09317
participação	-9.09325
23	-9.09367
▁001	-9.09448
▁2004;	-9.09555
▁fundamento	-9.09879
▁gestor	-9.09904
ca	-9.10112
vo	-9.10174
48;	-9.10176
▁nome	-9.10396
ge	-9.10406
vinte	-9.10732
46	-9.10732
▁dispõe	-9.10809
▁sindicância	-9.10809
▁miranda	-9.10816
▁inicial	-9.10822
▁alterações	-9.10827
▁ficando	-9.10861
me	-9.10941
88	-9.10978
▁44	-9.11207
▁bombeiros	-9.11361
▁condições	-9.11483
on	-9.11802
▁gratifica	-9.12242
▁enfermagem	-9.12324
▁orgânica	-9.12324
▁13.392.6219.2	-9.1233
▁cristin	-9.12414
3.	-9.12525
us	-9.12567
▁dispensar	-9.12579
am	-9.12799
▁sia	-9.12999
▁próximo	-9.13224
-02,	-9.13482
▁fica	-9.13842
▁tecnologia	-9.13863
▁pagamento	-9.13863
▁acompanhamento	-9.13864
▁visa	-9.14008
4,	-9.14072
▁cultural	-9.14112
w	-9.14118
▁outros	-9.14126
ardo	-9.1441
das	-9.14562
ti	-9.14681
res	-9.14785
▁administrador	-9.14816
93	-9.14826
.3	-9.15062
86	-9.15063
▁2008,	-9.15333
▁2010	-9.1536
▁primeiro	-9.15425
▁márci	-9.15425
▁emenda	-9.15426
▁antonio	-9.15426
▁qppmc	-9.15427
▁leon	-9.15437
▁controladoria	-9.15442
tribuição	-9.15474
▁apuração	-9.15475
77	-9.15605
61)	-9.15634
71	-9.1578
lson	-9.15937
▁1993,	-9.15999
▁toda	-9.16008
▁urbana	-9.16122
▁corre	-9.16134
▁defensor	-9.16377
22	-9.16547
▁via	-9.16608
▁curso	-9.16687
▁encontra	-9.16704
56	-9.16704
41	-9.16755
dez	-9.16828
▁dispensa	-9.16892
▁fonseca	-9.17013
▁francisco	-9.17013
▁global	-9.17013
▁quantitativo	-9.17013
▁nacional	-9.17045
▁legislação	-9.17059
min	-9.1713
▁2005,	-9.17803
3;	-9.17811
▁membros	-9.17831
▁cláusula	-9.18
sec	-9.18017
21	-9.18338
7.	-9.18516
▁final	-9.18624
▁avaliação	-9.18625
▁batista	-9.18625
▁propaganda	-9.18625
▁fins	-9.18627
▁normativa	-9.1863
▁indicação	-9.18638
▁responsável	-9.18656
▁20,	-9.18705
▁campos	-9.18713
...".	-9.18808
▁cento	-9.18902
idade	-9.18994
▁2011.	-9.19129
▁resultado	-9.19345
81	-9.19436
-3,	-9.19452
8.	-9.19994
▁araujo	-9.20265
▁instituto	-9.20265
▁licitações	-9.20267
▁grupo	-9.20293
▁equipamentos	-9.20517
▁42,	-9.20631
98	-9.20898
dio	-9.21255
▁comercial	-9.21928
▁previsto	-9.21931
▁providências	-9.21931
▁aplicação	-9.2194
▁concurso	-9.22
78	-9.22009
▁oitocentos	-9.22016
▁cj	-9.22185
▁próprios	-9.22188
▁publi	-9.22476
▁ordenador	-9.2268
▁membro	-9.22761
911.	-9.2279
▁coordenador	-9.22973
▁fora	-9.23043
82	-9.23267
▁respectivo	-9.23626
▁junior	-9.23642
▁santana	-9.23643
ício	-9.23687
▁executores	-9.23797
▁fiscal	-9.23965
▁renat	-9.24084
6.	-9.24124
li	-9.24133
▁asa	-9.2426
▁regulamenta	-9.24404
▁parcela	-9.24404
▁realizado	-9.24449
79	-9.24717
ância	-9.25231
▁bens	-9.25259
▁acompanhar	-9.2535
▁tribunal	-9.2535
▁parque	-9.25353
▁0001-09	-9.25382
alterado	-9.25536
17	-9.25633
84	-9.25647
▁teste	-9.26223
44	-9.2624
96	-9.26338
▁d	-9.26374
re	-9.2663
▁nova	-9.2682
39	-9.26843
73	-9.26939
▁jardim	-9.27105
▁limpeza	-9.27105
▁objetiva	-9.27105
▁relativo	-9.27105
▁funcional	-9.27106
▁corpo	-9.27129
85	-9.27211
trav	-9.27238
▁disciplinar	-9.2725
cinco	-9.2761
▁interesse	-9.27978
▁arquivo	-9.28032
▁necessidades	-9.28542
33	-9.28816
▁cidadania	-9.28891
▁marques	-9.28891
▁ainda	-9.28891
▁infraestrutura	-9.28892
▁retificar	-9.28895
▁deverão	-9.289
▁fim	-9.28933
▁auto	-9.28953
▁maur	-9.28984
▁veículos	-9.29308
▁unidades	-9.29343
line	-9.29419
ce	-9.29444
▁100;	-9.29471
▁2011-	-9.29961
▁in	-9.30145
oito	-9.30159
▁concorrência	-9.30709
▁cujo	-9.30709
▁cesar	-9.30709
▁moreira	-9.30709
▁original	-9.30736
▁antônio	-9.3074
▁brito	-9.30797
.658.02	-9.31046
v	-9.31278
▁hr	-9.31279
▁taguatinga	-9.31308
▁médica	-9.31533
3,	-9.32198
95	-9.32198
▁conselho	-9.32561
%	-9.32584
▁negócios	-9.32797
▁disponíve	-9.32864
▁financeira	-9.334
▁pessoa	-9.33453
▁órgão	-9.33564
▁hospitalares	-9.33979
ência	-9.34146
▁contrário	-9.34447
▁seguir	-9.34447
▁contida	-9.34448
▁tomada	-9.34488
68	-9.34988
▁auxiliar	-9.3633
▁respectiva	-9.36336
▁qopm	-9.36371
▁nomeou	-9.36414
▁estabelecida	-9.3643
▁pres	-9.36464
adão	-9.3648
8,	-9.36674
▁medicamentos	-9.36718
00.	-9.37168
▁todo	-9.37248
▁norma	-9.37293
quin	-9.37373
▁agência	-9.37426
gio	-9.37486
▁passa	-9.37519
▁00	-9.3754
quer	-9.37661
dois	-9.3778
▁cbmdf	-9.37817
ém	-9.37976
▁ma	-9.38218
0,	-9.38289
▁contratos	-9.38308
io	-9.38331
▁freitas	-9.38331
▁saneamento	-9.38331
▁moura	-9.38334
▁informação	-9.3835
▁adjunta	-9.38397
61	-9.38587
▁708	-9.38795
▁caso	-9.3916
▁lucian	-9.39399
13	-9.39423
ve	-9.39846
07	-9.39915
k	-9.40161
#	-9.40331
superintendência	-9.40331
uasg	-9.40331
▁presidência	-9.40331
▁sobradinho	-9.40331
▁10.486	-9.40333
nhas	-9.40351
▁assessoria	-9.40406
▁matos	-9.40509
ada	-9.4058
97	-9.41435
al	-9.41535
▁so	-9.41597
nei	-9.41744
▁di	-9.41947
▁graduação	-9.42322
▁cândid	-9.42372
▁julgamento	-9.42372
▁mediante	-9.42372
▁andré	-9.42373
▁razão	-9.42377
▁gama	-9.42383
▁educacional	-9.42387
quarenta	-9.42433
▁70	-9.42503
▁per	-9.42545
38	-9.42958
-06	-9.43444
▁rog	-9.43488
▁57,	-9.43555
-9,	-9.43604
▁2012	-9.44114
▁2004	-9.44257
▁sec	-9.44317
▁cruz	-9.44411
▁aguiar	-9.44455
▁cunha	-9.44455
▁especializada	-9.44455
▁jesus	-9.44455
▁srsoe	-9.44456
▁distribuidora	-9.44456
▁ocupante	-9.44456
▁fiscalizar	-9.44457
▁policiais	-9.4446
ões	-9.44492
▁relacionado	-9.44541
shin	-9.44633
és	-9.44651
▁165.	-9.44664
▁períodos	-9.44767
▁autorizo	-9.44798
15,	-9.44825
▁2003,	-9.44854
▁comunicação	-9.44888
▁sub	-9.4513
ton	-9.45152
▁prestados	-9.45362
erson	-9.45796
▁sede	-9.4591
▁fr	-9.45931
▁cópia	-9.46583
▁estabelece	-9.46583
▁fiscais	-9.46583
▁proventos	-9.46583
▁seleção	-9.46583
▁disposição	-9.46583
▁38.094	-9.46587
▁1986	-9.46661
▁roberto	-9.46764
▁sendo	-9.47157
í	-9.4723
bm	-9.47312
ação	-9.47403
▁rede	-9.47923
▁executora	-9.48078
▁terracap	-9.48189
▁candidatos	-9.48431
go	-9.48572
▁anterior	-9.48717
▁eventuais	-9.48757
▁infração	-9.48757
▁12.086	-9.48757
▁térmi	-9.48757
quinze	-9.48759
▁observando	-9.48839
▁trezentos	-9.49366
▁1984	-9.49442
1-	-9.49674
▁tcdf	-9.49787
▁realizada	-9.5009
va	-9.50285
gt	-9.50475
nstitucional	-9.50862
▁assiduidade	-9.50979
▁composta	-9.50979
▁primeira	-9.50979
▁nunes	-9.50979
▁aparecid	-9.5098
▁banco	-9.5098
▁outras	-9.50981
responsabilidade	-9.50981
▁ricardo	-9.50982
ns	-9.51022
▁prorrogar	-9.51052
ter	-9.51455
▁1690	-9.51511
.500,00	-9.52028
▁3°	-9.52821
cro	-9.53249
▁32.753	-9.53252
▁coleta	-9.53252
▁estradas	-9.53252
▁isolad	-9.53252
▁permanência	-9.53252
▁resolução	-9.53252
▁supervisionar	-9.53252
▁comprimido	-9.53252
▁júnior	-9.53252
▁rodagem	-9.53252
▁comandante	-9.53253
3903.	-9.53267
▁sain	-9.53323
▁redação	-9.53744
▁parágrafos	-9.5406
el	-9.54108
▁receita	-9.54289
83,	-9.54674
▁dura	-9.54732
▁senhor	-9.54954
▁comunica	-9.55496
770-200	-9.55578
▁abastecimento	-9.55578
▁indústria	-9.55578
▁referida	-9.55578
89	-9.55579
▁fg	-9.5558
▁7.289	-9.55587
▁barros	-9.55629
▁disponibilizado	-9.5563
▁edição	-9.55785
▁atenção	-9.55812
▁escola	-9.56163
▁mo	-9.56571
ap	-9.56682
▁delegada	-9.5759
▁própria	-9.57958
▁cavalcante	-9.57959
▁governo	-9.57959
▁jurídico	-9.57959
▁pinheiro	-9.57959
▁pregoeiro	-9.57959
▁queiroz	-9.57959
▁prestes	-9.57959
▁expedida	-9.57969
▁saber	-9.57969
mail	-9.58014
car	-9.58089
▁ce	-9.58101
▁encontram	-9.58113
▁38	-9.58116
▁autorizar	-9.58276
di	-9.58322
▁39.546,	-9.58514
▁rosa	-9.58609
▁processos	-9.5865
.000,00	-9.58745
▁seplag	-9.58788
▁valores	-9.58859
val	-9.58884
▁93;	-9.58914
▁vencedora	-9.58959
.5	-9.59027
ci	-9.5962
▁quadra	-9.59652
▁caput	-9.5966
▁ml	-9.59664
trezentos	-9.59717
▁xi	-9.59887
▁2015.	-9.60009
ceb	-9.60192
▁públicos	-9.60218
▁encaminhe	-9.60398
▁parecer	-9.60398
▁turismo	-9.60398
▁organização	-9.60405
▁aprovação	-9.60453
sido	-9.6084
-1,	-9.60843
▁águas	-9.61189
▁compra	-9.61224
▁inss	-9.6123
▁2015	-9.6142
rad	-9.61575
▁setecentos	-9.61716
▁http	-9.62409
▁disciplina	-9.62621
▁2007	-9.62666
▁93,	-9.62731
▁associação	-9.62897
▁brazlândia	-9.62897
▁ministério	-9.62897
▁subsecretária	-9.62897
▁única	-9.62897
▁contido	-9.62898
▁documentação	-9.62901
▁firmado	-9.62901
▁ful	-9.6292
▁bio	-9.62985
compras	-9.63084
ao	-9.63187
-2,	-9.63195
▁sociedade	-9.6331
▁241	-9.63519
▁novacap	-9.63616
▁este	-9.64134
▁144	-9.64605
▁cumprimento	-9.64817
ina	-9.64902
▁reserva	-9.64976
▁efeitos	-9.65058
▁apura	-9.65063
@	-9.65462
▁lotada	-9.65462
▁okumoto	-9.65462
▁regina	-9.65464
▁paiva	-9.65465
▁brasileiro	-9.65588
▁engenharia	-9.65886
caput	-9.66244
▁al	-9.67118
▁jurídica	-9.67181
▁designado	-9.67335
9,	-9.67491
2.	-9.67501
▁técnicas	-9.67517
365	-9.67633
▁extra	-9.68085
▁consumo	-9.68093
▁césar	-9.68093
▁edifício	-9.68093
▁instalações	-9.68093
▁ordinário	-9.68093
▁profissionais	-9.68093
▁regulamento	-9.68093
▁feita	-9.68095
▁percentual	-9.68095
▁suspender	-9.68104
▁logística	-9.68118
▁fundamentação	-9.68127
▁anual	-9.68143
▁terá	-9.6821
▁vii	-9.6828
en	-9.68364
▁24,	-9.68514
▁julian	-9.68609
▁lotes	-9.69037
▁empresas	-9.69139
▁fatos	-9.693
▁181	-9.69441
▁25,	-9.69508
▁militares	-9.69714
▁seiscentos	-9.69854
três	-9.69877
-12,	-9.70009
▁ssp	-9.70175
▁observ	-9.70386
▁125,	-9.70443
nte	-9.70476
vi	-9.70549
▁ra	-9.70648
▁riacho	-9.70796
▁rodrigo	-9.70796
▁tributária	-9.70796
▁22.202	-9.70796
▁regulamentares	-9.70813
▁participar	-9.70826
ir	-9.70853
1.	-9.71054
▁ind	-9.71417
▁leite	-9.71514
▁gabriel	-9.7158
▁estatuto	-9.72036
rem	-9.72075
▁urbano	-9.727
berto	-9.72717
▁hospitalar	-9.72828
in	-9.73386
▁legisla	-9.73491
▁hospital	-9.73562
▁974200	-9.73573
▁bezerra	-9.73574
▁credenciamento	-9.73574
▁inexigibilidade	-9.73574
▁investigação	-9.73574
▁número	-9.73574
▁prejuízo	-9.73574
▁franco	-9.73574
▁§§	-9.73574
▁monteiro	-9.73575
▁inscrição	-9.73577
▁gab	-9.73588
▁fone	-9.73595
▁helena	-9.736
▁contribuição	-9.73604
▁neste	-9.73637
▁particip	-9.73986
▁interessados	-9.74101
▁29-	-9.74403
▁água	-9.74453
▁cel	-9.74929
▁vigente	-9.75547
ados	-9.75621
ario	-9.75859
-07,	-9.75902
ida	-9.76072
▁170	-9.76395
ista	-9.76402
▁procedimento	-9.76431
▁azevedo	-9.76431
▁botânico	-9.76431
ampla	-9.76431
▁pcdf	-9.76431
▁(*)	-9.76431
▁rosário	-9.76432
▁guará	-9.76433
▁correspondente	-9.76433
▁constituição	-9.76444
▁15.740	-9.76448
.01.2019	-9.76463
▁alexandre	-9.76465
▁reis	-9.76608
5.	-9.76654
▁pa	-9.76808
▁sh	-9.77031
cinquenta	-9.77157
cultura	-9.77178
▁daniel	-9.77284
▁anexad	-9.77575
▁documento	-9.77726
▁21,	-9.77787
▁33	-9.77814
▁68	-9.77902
▁1993	-9.78201
9.	-9.78232
▁referido	-9.78431
▁obriga	-9.78685
▁pre	-9.79231
▁despacho	-9.79372
▁hemocentro	-9.79372
▁machado	-9.79372
▁pedro	-9.79372
▁preliminar	-9.79372
▁regionais	-9.79372
▁remuneração	-9.79372
▁sebastião	-9.79372
▁supervisor	-9.79372
▁adicional	-9.79372
▁licenciamento	-9.79372
▁competi	-9.79372
▁incluir	-9.79384
▁relativa	-9.79392
057	-9.79402
▁alteração	-9.79453
▁augusto	-9.79456
▁qd	-9.79483
▁2018-15;	-9.79487
▁institucional	-9.79527
▁gratificação	-9.79533
▁santa	-9.79575
▁praças	-9.79623
▁lara	-9.79642
▁exames	-9.79726
▁formação	-9.79742
▁felip	-9.8034
srp	-9.80361
▁02,	-9.80463
▁80,	-9.80551
▁republicada	-9.80595
ide	-9.80601
▁qn	-9.80709
▁cedente	-9.80726
cio	-9.80878
▁1.1	-9.81355
▁2.	-9.81454
▁altera	-9.81785
▁administrativas	-9.81823
▁ratificad	-9.82112
hab	-9.82237
essa	-9.82346
▁compete	-9.82396
▁correlatas	-9.82402
▁certame	-9.82402
▁integrais	-9.82402
▁nogueira	-9.82402
▁subcontrolador	-9.82402
▁milhões	-9.82403
▁mobilidade	-9.82403
▁dependente	-9.82404
▁cooperativa	-9.82405
▁lago	-9.82409
17.122.6001.8517	-9.82411
▁menu	-9.82413
sonância	-9.82426
▁procuradoria	-9.82429
▁devendo	-9.8244
▁6977	-9.82462
▁apresentação	-9.82467
tra	-9.82524
mg	-9.82553
▁pr	-9.82608
▁125-	-9.82837
▁dispositivo	-9.82906
an	-9.832
ante	-9.83382
▁2016;	-9.83514
▁§1	-9.84109
▁5-	-9.84184
▁158	-9.84323
▁00060-005	-9.84355
▁acesso	-9.84367
ma	-9.84593
▁instrumento	-9.84611
▁afastamento	-9.84662
▁política	-9.8471
pa	-9.84823
at	-9.84986
il	-9.8513
id	-9.8517
▁assuntos	-9.85291
▁especifica	-9.85332
▁transfer	-9.85332
▁sér	-9.85496
nze	-9.85522
▁regime	-9.85527
▁339030	-9.85527
▁alcântara	-9.85527
▁efetivo	-9.85527
▁eventual	-9.85527
▁favor	-9.85527
▁guimarães	-9.85527
▁qualificação	-9.85527
▁venda	-9.85527
▁habitacional	-9.85528
▁neves	-9.85528
▁contribuinte	-9.85528
▁recicláveis	-9.85528
▁dantas	-9.85528
▁básico	-9.85529
▁capital	-9.8553
▁222-	-9.85534
▁39.009	-9.8554
▁solicitado	-9.85546
▁incorre	-9.85592
▁cod	-9.85624
11.101.000.000-3	-9.85645
▁angel	-9.85665
▁especificado	-9.85688
▁oeste	-9.85788
▁pertinentes	-9.85988
▁ano	-9.86018
▁direito	-9.86078
▁permitid	-9.86297
▁urbanos	-9.86522
ug	-9.86741
▁for	-9.86886
".	-9.8692
gu	-9.87005
▁40	-9.87097
▁determina	-9.87232
▁gestora	-9.87374
aldo	-9.874
▁administrativos	-9.87452
▁prestado	-9.87884
▁002	-9.87963
▁003	-9.88089
▁análise	-9.88345
▁1991	-9.88532
▁comercio	-9.88753
▁executiva	-9.88753
▁samambaia	-9.88753
▁trimestre	-9.88753
▁libera	-9.88753
▁atesta	-9.88754
▁intimação	-9.88755
▁normativo	-9.88755
▁felix	-9.88759
▁podendo	-9.88759
▁brasileira	-9.88774
▁habitação	-9.88777
▁devem	-9.88832
▁36	-9.88912
▁neto	-9.89019
▁4°	-9.89076
▁marci	-9.89119
▁2002,	-9.8922
▁farias	-9.89229
▁bruno	-9.89244
-03	-9.89278
▁informática	-9.89291
▁oficiais	-9.89291
▁rua	-9.8945
▁ge	-9.90653
▁licitac	-9.90839
-0,	-9.9084
amento	-9.91129
▁prática	-9.91168
▁critério	-9.91198
▁lucas	-9.91235
▁congresso	-9.91251
des	-9.91407
seis	-9.91577
▁180	-9.91721
▁dir	-9.91763
ber	-9.91835
▁1998	-9.9185
cia	-9.91858
▁assis	-9.92023
▁cidades	-9.92045
▁controlador	-9.92058
junto	-9.92065
▁barreto	-9.92086
▁civis	-9.92086
▁limite	-9.92086
▁parceria	-9.92086
▁ponto	-9.92086
▁predial	-9.92086
▁úteis	-9.92086
▁localizada	-9.92087
▁alessandr	-9.92087
▁catadores	-9.92087
▁administrações	-9.92087
essia	-9.92089
▁substituição	-9.92097
▁remunerada	-9.92098
▁ascal	-9.92133
▁pensionistas	-9.92221
▁penitenciárias	-9.9231
▁ficam	-9.92315
ise	-9.92454
▁instalação	-9.92643
ja	-9.92837
▁2003	-9.93099
bi	-9.93103
▁ix	-9.93454
0057	-9.93459
▁indevid	-9.93577
pi	-9.93646
▁convocação	-9.93708
▁arts	-9.93746
eta	-9.93975
uma	-9.94014
nel	-9.94059
ado	-9.94283
im	-9.9442
▁transportes	-9.94549
inha	-9.94564
cg	-9.95037
▁2013..."	-9.95153
be	-9.95172
5-	-9.95321
par	-9.95436
gusta	-9.95508
▁usufru	-9.95535
herme	-9.95535
▁contratual	-9.95535
▁dívida	-9.95535
▁executivo	-9.95535
▁patrimônio	-9.95535
▁segunda	-9.95535
▁socioeducativo	-9.95535
▁emitida	-9.95535
▁mesmo	-9.95535
▁7.165	-9.95536
▁guil	-9.95536
▁pires	-9.95537
▁competente	-9.95542
▁solicitação	-9.95547
▁operacional	-9.95551
▁cristian	-9.95595
feira	-9.95619
▁imposto	-9.95636
fe	-9.95639
▁serem	-9.9579
▁fases	-9.95862
ley	-9.96023
▁contra	-9.96185
▁1996	-9.96317
▁14,	-9.96483
▁2002	-9.96522
▁inter	-9.96657
▁matr	-9.96707
▁ts	-9.96739
▁prorrogado	-9.96858
▁administradora	-9.96906
36,	-9.97562
▁115	-9.97788
seplag	-9.97867
▁cm	-9.98106
▁território	-9.98178
▁telefone	-9.98224
▁cidade	-9.98418
▁quanto	-9.98827
▁convoca	-9.98925
fi	-9.98943
▁requisit	-9.991
▁00094-	-9.99106
▁12.403.402.200-	-9.99106
▁conjunta	-9.99106
▁câmara	-9.99106
▁seletiva	-9.99106
▁suporte	-9.99106
▁cedido	-9.99106
▁resíduos	-9.99106
▁autoridade	-9.99106
▁econômico	-9.99107
rão	-9.99108
▁inativos	-9.9911
▁homologação	-9.99123
fazendo	-9.99136
▁sais	-9.99157
▁2002;	-9.99458
,00	-9.99555
▁contratados	-9.99578
▁40,	-9.996
interven	-9.9962
▁vida	-9.99693
▁frasco	-9.99704
▁cgdf	-9.99709
▁governadoria	-9.99719
ora	-10.0016
40.	-10.0025
▁pm	-10.0036
▁ed	-10.0045
▁fa	-10.0051
▁50	-10.0065
▁jorge	-10.0077
▁934	-10.0083
2.2	-10.0126
666	-10.0183
▁título	-10.019
acl	-10.0193
▁1.2	-10.0194
▁veículo	-10.0194
▁clement	-10.0222
▁48,	-10.0245
ur	-10.027
▁michel	-10.028
▁00111-	-10.0281
governamentais	-10.0281
▁caráter	-10.0281
▁cooperação	-10.0281
▁duarte	-10.0281
▁faturas	-10.0281
▁origem	-10.0281
▁palazzo	-10.0281
▁vasconcelos	-10.0281
▁física	-10.0281
▁integral	-10.0281
▁sales	-10.0281
▁silveira	-10.0281
▁instaurar	-10.0281
▁lotação	-10.0281
▁habilitação	-10.0281
-060.0058	-10.0282
▁terez	-10.0282
noventa	-10.0282
▁elaboração	-10.0282
▁37.2	-10.0284
▁auditoria	-10.0284
▁relação	-10.0285
▁declaração	-10.0285
▁representada	-10.0301
▁transferido	-10.0304
▁vale	-10.0319
▁voga	-10.0323
▁po	-10.0355
▁mi	-10.036
▁prod	-10.0367
769,	-10.0406
dade	-10.0413
▁go	-10.0414
▁andre	-10.0421
▁subite	-10.044
ari	-10.0468
ana	-10.0475
tu	-10.0481
03,	-10.0483
art	-10.0487
0042	-10.0497
0058	-10.0497
0;	-10.0505
▁2013...".	-10.0525
▁notas	-10.0548
▁en	-10.0549
ga	-10.0562
▁cap	-10.0564
▁prova	-10.0573
ene	-10.0576
▁auditor	-10.0595
▁financeiros	-10.06
ica	-10.0604
▁apresenta	-10.0616
11,	-10.0628
▁exonera	-10.0639
agri	-10.0657
_	-10.0665
retirada	-10.0666
▁corregedoria	-10.0666
▁epígrafe	-10.0666
▁leandro	-10.0666
▁thiago	-10.0666
▁arquitetura	-10.0666
▁siqueira	-10.0666
▁matéria	-10.0666
▁planaltina	-10.0666
▁regido	-10.0666
empre	-10.0666
▁acata	-10.0667
▁averbação	-10.0667
▁união	-10.0667
▁policial	-10.0667
uição	-10.0669
▁cpd	-10.067
▁anteriores	-10.0673
▁jean	-10.0678
▁registrado	-10.0687
▁2006	-10.0709
▁medico	-10.0732
con	-10.0736
▁gil	-10.0739
▁carl	-10.0752
▁termina	-10.076
▁qo	-10.079
▁13,	-10.0829
▁2000	-10.0848
sei	-10.0862
▁sesipe	-10.0868
tec	-10.0894
▁154	-10.0913
▁está	-10.0967
▁and	-10.0991
▁cota	-10.102
▁técnicos	-10.1028
lhe	-10.1045
▁atos	-10.1063
▁cnp	-10.1064
dezesseis	-10.1066
▁estimativo	-10.1066
▁segundo	-10.1066
▁implantação	-10.1066
▁elemento	-10.1067
▁leal	-10.1067
▁morais	-10.1067
▁adquirido	-10.1069
▁"...1°	-10.1071
1.134	-10.1071
▁nível	-10.1072
▁elisa	-10.1072
-10,	-10.1073
▁reformar	-10.1082
▁su	-10.1089
▁quantidades	-10.1096
ane	-10.1132
▁complementares	-10.114
▁sam	-10.1145
174	-10.1146
▁juli	-10.1186
▁albert	-10.1194
sete	-10.1199
gi	-10.1222
▁procurador	-10.1254
▁j	-10.1266
sesipe	-10.1268
sul	-10.1278
militares	-10.1286
der	-10.1287
.001	-10.1295
tcdf	-10.1296
dis	-10.1302
itens	-10.1307
processo	-10.1327
▁ba	-10.1329
▁tc	-10.133
-5,	-10.1334
▁public	-10.1336
▁00410-	-10.1384
usa	-10.1386
0.000,00	-10.1388
▁objetivo	-10.1388
▁crédito	-10.139
▁localizado	-10.1391
▁cr	-10.1393
▁bombeiro	-10.1396
▁hora	-10.1398
▁obra	-10.1403
▁139	-10.1426
▁37	-10.1431
-4,	-10.1457
96,	-10.1471
▁aldem	-10.1481
▁adjudicado	-10.1482
▁carneiro	-10.1482
▁magalhães	-10.1482
▁paralímpico	-10.1482
▁ratifico	-10.1482
▁retirado	-10.1482
▁rezende	-10.1482
▁tavares	-10.1482
▁amparo	-10.1482
métricos	-10.1482
▁mês	-10.1482
▁pinto	-10.1482
▁coelho	-10.1482
▁abono	-10.1482
▁parente	-10.1482
▁cartório	-10.1482
▁destinação	-10.1484
▁ramos	-10.1484
▁identificação	-10.1486
▁diversos	-10.1488
▁sspdf	-10.1493
▁carreira	-10.1508
▁encaminhado	-10.1508
50.	-10.1514
▁1987	-10.1531
▁100,	-10.1543
▁00150-000106	-10.1561
▁marcada	-10.1568
mp	-10.1571
▁1992,	-10.1582
▁105,	-10.1584
▁39.6	-10.1615
002	-10.1632
153,	-10.165
dor	-10.1663
▁prazos	-10.1667
152,	-10.1676
jur	-10.1686
3.6	-10.1708
▁143	-10.1711
▁61	-10.1723
▁ch	-10.1753
4;	-10.1759
▁marca	-10.1763
▁2014.	-10.1773
▁23,	-10.1776
med	-10.1777
▁etapas	-10.1778
pac	-10.1788
▁micro	-10.1796
▁00060-0057	-10.1808
▁37,	-10.1813
▁vencimento	-10.1826
▁justificativa	-10.1827
▁benefício	-10.1828
▁atividade	-10.1831
ver	-10.1843
ino	-10.1848
▁fixa	-10.1851
▁05,	-10.1862
▁35,	-10.1871
▁posto	-10.1871
ho	-10.1883
6;	-10.1886
▁regular	-10.1896
são	-10.1908
ê	-10.1909
▁realizar	-10.1914
vante	-10.1915
▁ramal	-10.1917
▁ajustadas	-10.1917
▁funções	-10.1917
▁goncalves	-10.1917
▁identidade	-10.1917
▁judice	-10.1917
▁locais	-10.1917
▁sampaio	-10.1917
▁suspensão	-10.1917
▁conservação	-10.1917
▁amaral	-10.1917
▁energia	-10.1917
▁junta	-10.1917
▁utilidade	-10.1917
▁assistente	-10.1917
▁cldf	-10.1918
▁marina	-10.1919
▁clínica	-10.1921
▁desempenh	-10.1922
▁marinho	-10.1924
▁considerado	-10.1929
▁compor	-10.193
▁sigiloso	-10.1939
53,	-10.194
▁cada	-10.1948
▁pago	-10.1955
003	-10.2019
229,	-10.2021
rita	-10.2041
▁direitos	-10.2041
17,	-10.2059
▁designados	-10.2067
▁2008;	-10.2068
ip	-10.2076
▁conhecimento	-10.2121
▁117	-10.2133
▁84,	-10.2136
84,	-10.2159
▁sol	-10.2199
▁94,	-10.22
▁demanda	-10.2219
▁128,	-10.2223
▁ad	-10.2251
31,	-10.2265
▁sold	-10.2267
185	-10.2274
▁sítio	-10.2278
lay	-10.2292
rt	-10.2293
▁197	-10.2298
si	-10.2298
▁indicado	-10.2311
▁fabr	-10.2362
.757	-10.2363
unc	-10.2365
ônica	-10.2371
externo	-10.2371
▁cuja	-10.2372
▁especiais	-10.2372
▁pesquisa	-10.2372
▁solidária	-10.2372
▁terceira	-10.2372
▁400091	-10.2372
▁urbanizadora	-10.2372
quatorze	-10.2372
▁construções	-10.2372
▁srsno	-10.2372
▁caber	-10.2373
▁finalidade	-10.2375
▁autorizada	-10.2375
▁telefonia	-10.2379
▁já	-10.2379
▁torres	-10.2386
▁el	-10.2396
▁peças	-10.2398
▁revogação	-10.2403
ldo	-10.2407
▁rr	-10.242
cente	-10.2449
centro	-10.245
anexo	-10.2455
ey	-10.2459
67,	-10.2461
0059	-10.2501
issa	-10.2512
▁65,	-10.2533
▁2020.	-10.2542
ad	-10.259
1.0	-10.262
69,	-10.2624
▁detran	-10.2642
▁2002.	-10.2655
730	-10.2667
▁bu	-10.2668
▁lançamento	-10.2673
ny	-10.2688
zi	-10.2729
▁adrian	-10.2731
▁mesma	-10.2755
ização	-10.2759
▁medicamento	-10.2762
▁47	-10.278
▁encaminha	-10.2796
▁sab	-10.2811
▁2001	-10.2821
▁disponibiliza	-10.2843
▁150	-10.2846
▁dp	-10.2847
▁00150-	-10.2848
▁antunes	-10.2848
▁cirurgia	-10.2848
▁decorrente	-10.2848
▁digital	-10.2848
▁figueiredo	-10.2848
▁governança	-10.2848
▁mobiliário	-10.2848
▁operações	-10.2848
▁provimento	-10.2848
▁xavier	-10.2848
▁último	-10.2848
▁medeiros	-10.2848
▁utilização	-10.2848
▁demonstrativo	-10.2848
▁gerais	-10.2848
▁quando	-10.2848
▁caldas	-10.2848
▁corrente	-10.285
▁reunião	-10.285
xi	-10.2851
ácio	-10.2854
▁19711	-10.2854
▁judicial	-10.2856
▁sessão	-10.2859
▁estrutural	-10.286
.41	-10.2861
teto	-10.2861
▁exigências	-10.2867
74.	-10.2868
▁tv	-10.2883
▁apresentada	-10.2888
▁nascido	-10.289
▁patrici	-10.2891
▁60,	-10.2911
▁mario	-10.292
▁deve	-10.2927
80,	-10.2935
013	-10.2936
fer	-10.2941
▁dar	-10.2942
▁ru	-10.297
▁sistemas	-10.2998
▁rio	-10.3017
lançamento	-10.3025
▁faz	-10.3031
org	-10.3033
qu	-10.3035
9;	-10.3069
▁substituta	-10.3073
5,00	-10.308
014	-10.3103
▁168	-10.3105
▁sp	-10.3108
.520	-10.317
▁eventos	-10.3184
▁tam	-10.3199
▁quem	-10.3225
▁adasa	-10.3225
▁tributário	-10.3255
▁necessário	-10.3258
▁necessária	-10.3259
▁32	-10.3261
▁outro	-10.3263
jo	-10.3286
1.4	-10.3301
▁gen	-10.3304
enes	-10.3312
cer	-10.3328
gressa	-10.3345
▁crianças	-10.3348
▁imobiliária	-10.3348
▁interessada	-10.3348
▁menezes	-10.3348
▁mensal	-10.3348
▁modelo	-10.3348
▁móveis	-10.3348
▁trecho	-10.3348
▁velloso	-10.3348
▁laudo	-10.3348
▁defesa	-10.3348
▁pensão	-10.3348
▁ipva	-10.3348
▁domiciliar	-10.3348
▁restou	-10.3349
▁carmo	-10.3349
▁comporem	-10.3349
▁incorporação	-10.335
▁luis	-10.335
▁igual	-10.3351
.938,	-10.3352
▁conj	-10.3354
2.6	-10.3362
▁sara	-10.3364
▁averbar	-10.3364
▁enfermeiro	-10.3368
▁15%	-10.3393
72,	-10.34
za	-10.3409
▁cf	-10.3411
75,	-10.3418
49,	-10.3425
▁cronograma	-10.3433
▁contabilidade	-10.3433
▁observado	-10.3434
▁1988	-10.3452
tura	-10.3455
agem	-10.346
▁conselheiro	-10.3467
tal	-10.3467
▁telefones	-10.3474
121	-10.3486
ias	-10.3497
▁2009;	-10.3498
▁estabelecido	-10.3501
▁ger	-10.3512
▁prorrogad	-10.3521
▁coordenadora	-10.3534
▁kell	-10.3546
231	-10.3573
▁certificado	-10.3578
0002	-10.358
▁braz	-10.3589
▁hrs	-10.3596
0040	-10.3597
▁57	-10.3616
▁sandr	-10.3617
261	-10.3618
▁van	-10.3641
wesl	-10.3646
6,00	-10.365
▁2.1	-10.3654
-1	-10.3668
lva	-10.3675
▁assinaturas	-10.3676
▁88,	-10.3681
22,	-10.37
novacap	-10.3723
yla	-10.3728
iza	-10.3748
nove	-10.3758
sub	-10.3768
▁olímpico	-10.378
gem	-10.3794
▁pro	-10.3795
▁100.	-10.3805
▁industria	-10.3815
4-2,	-10.382
lc	-10.3852
th	-10.3863
▁dados	-10.3871
segeth	-10.3874
▁abreu	-10.3874
▁amorim	-10.3874
▁construtora	-10.3874
▁deficiência	-10.3874
▁major	-10.3874
▁máximo	-10.3874
▁sociais	-10.3874
▁quais	-10.3874
▁reverter	-10.3874
▁agropecuária	-10.3874
▁alvares	-10.3874
▁assinam	-10.3874
▁memorando	-10.3874
▁emitido	-10.3874
▁220.000.	-10.3874
▁vantage	-10.3874
▁rossi	-10.3874
▁dotações	-10.3874
▁medicina	-10.3875
▁redução	-10.3875
▁divulgação	-10.3875
▁"...2°	-10.3875
opme	-10.3875
capacitação	-10.3875
▁sefp	-10.3876
▁situação	-10.3876
lobo	-10.3876
▁paz	-10.3877
cfp	-10.3878
▁7.479	-10.3879
▁oral	-10.388
▁7.19	-10.388
▁tratamento	-10.3885
▁38.24	-10.3885
▁auxiliares	-10.3885
▁claudia	-10.3887
▁viana	-10.389
▁mínimas	-10.3891
▁portal	-10.3897
▁encaminhada	-10.3898
3.303	-10.3899
▁+	-10.3904
▁manifesta	-10.3905
▁fornecedores	-10.3912
▁goz	-10.3926
▁39.133,	-10.3932
▁edson	-10.3936
▁garantia	-10.3936
▁alex	-10.3939
▁estudos	-10.3939
▁sa	-10.3959
po	-10.3961
ac	-10.3967
▁comb	-10.3972
ido	-10.3991
▁2018-11.	-10.3992
▁vigentes	-10.4041
▁74	-10.4047
ssa	-10.4062
▁seção	-10.4102
▁órgãos	-10.4129
▁testes	-10.4149
▁2016-	-10.4162
▁le	-10.4167
-7,	-10.4174
5%	-10.4208
ent	-10.4209
▁5°	-10.4218
▁3.1	-10.4221
▁429	-10.4225
ys	-10.4226
▁87,	-10.4227
▁00060-004	-10.4241
▁166	-10.4247
▁estrutura	-10.4258
ig	-10.4266
mos	-10.4273
0056	-10.4276
▁assegurad	-10.4287
▁exclusivo	-10.4292
▁republicado	-10.4292
eia	-10.4306
025	-10.431
52.	-10.4316
▁3213-7	-10.4323
▁sc	-10.4326
▁2017;	-10.4342
▁próprio	-10.4343
▁equipamento	-10.4343
▁125	-10.4348
▁trav	-10.4372
▁00060-0058	-10.4386
ativa	-10.4417
▁correi	-10.4422
▁xxvii	-10.4425
▁81	-10.4428
▁cumpri	-10.4428
▁adolescente	-10.443
▁albuquerque	-10.443
▁cabral	-10.443
▁chefia	-10.443
▁completo	-10.443
▁escritório	-10.443
▁injetavel	-10.443
▁juventude	-10.443
▁lucena	-10.443
▁obtida	-10.443
▁peixoto	-10.443
▁raphael	-10.443
▁sargento	-10.443
▁solução	-10.443
▁interposto	-10.443
▁mello	-10.443
▁bueno	-10.443
▁principal	-10.443
▁cálculo	-10.443
▁gerencia	-10.443
▁carga	-10.443
▁admissão	-10.443
▁incluindo	-10.443
▁plantão	-10.443
▁devidamente	-10.4431
tanto	-10.4432
▁reajuste	-10.4432
▁mota	-10.4435
▁1990	-10.4436
▁ten	-10.4436
▁especialista	-10.444
graduação	-10.4444
▁pt	-10.4454
oitenta	-10.4462
bo	-10.4491
▁2012;	-10.4524
▁ratifica	-10.454
▁ca	-10.4542
1-6,	-10.4549
▁112	-10.4555
▁vaga	-10.456
300	-10.4578
fan	-10.4581
ura	-10.466
-8,	-10.4666
cm	-10.4672
▁designa	-10.4676
▁2020	-10.4682
-05,	-10.4738
ram	-10.474
95,	-10.4777
▁009	-10.4778
▁113	-10.4788
▁interna	-10.48
pl	-10.4805
▁cor	-10.4822
0043	-10.4823
▁soldado	-10.4878
150	-10.4897
ito	-10.491
▁bm	-10.4917
▁elétrica	-10.4926
sup	-10.4928
▁pertinente	-10.4931
▁faria	-10.4935
▁fl	-10.4935
▁38.0	-10.4982
ato	-10.5002
▁atribuída	-10.5018
▁capsula	-10.5018
▁coletiva	-10.5018
▁denominada	-10.5018
▁eficácia	-10.5018
▁farmacêutica	-10.5018
▁formulário	-10.5018
▁ordinária	-10.5018
▁ortopedi	-10.5018
▁pacheco	-10.5018
▁prótese	-10.5018
▁remanescente	-10.5018
▁transgress	-10.5018
▁urbanismo	-10.5018
▁lavra	-10.5018
▁produção	-10.5018
▁atingi	-10.5018
▁penitenciário	-10.5018
▁assinantes	-10.5018
▁apostilamento	-10.5018
▁designou	-10.5018
▁medcom	-10.5018
▁054.002.	-10.5019
▁proteção	-10.502
riam	-10.5021
▁273.	-10.5022
dezoito	-10.5022
▁contrata	-10.5023
▁industriais	-10.5024
rize	-10.5026
▁constituir	-10.5027
▁ausências	-10.5031
▁hum	-10.5036
▁humanos	-10.5037
▁contendo	-10.5039
▁45,	-10.5051
▁mão	-10.5055
191	-10.5065
▁hi	-10.5072
manda	-10.5074
▁4%	-10.5076
▁2.1.	-10.5078
0041	-10.509
op	-10.5093
it	-10.5097
▁jan	-10.5099
06.	-10.5124
▁demandas	-10.5141
▁cotas	-10.5151
ntro	-10.5159
▁250	-10.5164
▁permanecer	-10.5192
quanto	-10.5194
imento	-10.5205
▁cli	-10.521
72.	-10.5233
5-5,	-10.5235
eira	-10.5238
contrato	-10.5239
cnpj	-10.5239
4-	-10.524
1.90	-10.5243
▁lucia	-10.5243
▁sus	-10.5248
lla	-10.5248
ita	-10.5254
35.	-10.527
▁redes	-10.527
1;	-10.5273
▁2018..."	-10.5286
▁97,	-10.5303
▁inc	-10.5323
rap	-10.5336
ria	-10.5341
erce	-10.535
▁cláusulas	-10.5355
▁114,	-10.5356
▁5.1	-10.5357
9-2,	-10.5387
aquel	-10.539
▁279	-10.5391
proc	-10.5408
▁srp	-10.5436
▁2018-00	-10.5447
▁39,	-10.5451
doc	-10.5466
.017	-10.5474
▁006	-10.5488
▁construção	-10.5489
▁san	-10.5515
▁empregado	-10.5541
▁espaço	-10.5547
▁edi	-10.555
▁convênio	-10.5552
▁int	-10.5552
correr	-10.5552
sta	-10.5554
▁process	-10.5556
▁adjunto	-10.5563
gua	-10.5566
▁averb	-10.5568
▁264.	-10.5574
▁atual	-10.5596
▁fundamenta	-10.56
▁47,	-10.5601
lias	-10.5615
▁007	-10.5642
▁assembleia	-10.5643
▁autarquia	-10.5643
▁bastos	-10.5643
▁capítulo	-10.5643
▁certidões	-10.5643
▁consecutivos	-10.5643
▁denominado	-10.5643
▁descrições	-10.5643
▁deslizante	-10.5643
▁emergencial	-10.5643
▁frança	-10.5643
▁lobão	-10.5643
▁piloto	-10.5643
▁residência	-10.5643
▁tabela	-10.5643
▁traumatologia	-10.5643
▁vigésima	-10.5643
▁óleo	-10.5643
▁sanitário	-10.5643
▁aptidão	-10.5643
▁especializados	-10.5643
▁gouv	-10.5643
ângel	-10.5643
▁34.320	-10.5643
▁locação	-10.5643
▁alencar	-10.5643
▁resende	-10.5643
▁custo	-10.5643
▁infantil	-10.5643
▁internet	-10.5643
▁wellin	-10.5643
▁dlf	-10.5643
▁lemos	-10.5644
▁reconhecimento	-10.5644
▁pena	-10.5644
▁26.92	-10.5644
aggio	-10.5645
▁sexo	-10.5645
semob	-10.5646
▁mantendo	-10.5646
▁licitado	-10.5646
▁deliberação	-10.5646
▁grande	-10.5649
▁comparecer	-10.5653
kg	-10.5653
sté	-10.5655
▁izid	-10.5656
▁presi	-10.5657
▁efetuado	-10.5661
▁008	-10.5663
▁39.0	-10.5668
▁inscrit	-10.5675
▁descrita	-10.5683
▁josia	-10.5695
-01,	-10.5695
▁impress	-10.5708
ário	-10.571
▁080.00	-10.5713
oya	-10.5714
▁instituída	-10.5727
▁0001-60	-10.5727
▁reciclagem	-10.5751
▁necessárias	-10.5756
ct	-10.5766
nd	-10.5784
tais	-10.5787
207	-10.5788
▁65	-10.579
asa	-10.5791
8-3,	-10.5801
▁1.43	-10.5801
▁critérios	-10.5814
▁calculado	-10.5817
▁assegurado	-10.5822
8;	-10.5825
▁64,	-10.5825
belo	-10.5828
las	-10.5838
160	-10.5846
zo	-10.5849
▁51,	-10.5854
▁caix	-10.5874
▁cas	-10.5903
.450	-10.5904
181	-10.5909
▁1999	-10.5911
▁ele	-10.5931
▁214	-10.5933
▁officio	-10.5945
teira	-10.5955
estante	-10.5959
▁arquivos	-10.5968
tc	-10.5977
ki	-10.5983
▁00050-	-10.5983
legado	-10.6013
▁indevido	-10.6013
▁53	-10.6016
▁pal	-10.6022
▁vencedor	-10.6029
republicada	-10.6033
ec	-10.6039
fm	-10.6047
ete	-10.6047
▁pgdf	-10.6048
1-8,	-10.6051
ul	-10.6053
▁32,	-10.6058
símbolo	-10.6072
▁ventura	-10.6084
estabelecidos	-10.6109
▁emi	-10.6114
▁comprova	-10.6115
6-9,	-10.6121
ine	-10.6167
▁242.	-10.6199
▁instituíd	-10.6221
▁negócio	-10.6223
▁parte	-10.6224
▁legislativa	-10.6228
lmon	-10.6229
▁contratado	-10.6231
▁continu	-10.6231
lha	-10.6261
lógica	-10.6267
1°	-10.6272
▁reforma	-10.6283
nos	-10.6293
▁real	-10.6295
▁carolin	-10.6296
cao	-10.6296
▁responsáve	-10.6297
▁posterior	-10.6302
condiciona	-10.6306
lice	-10.6307
▁refere	-10.6309
pediatr	-10.631
▁autenticada	-10.631
▁auxílio	-10.631
▁chamamento	-10.631
▁decisões	-10.631
▁exclui	-10.631
▁força	-10.631
▁inspeção	-10.631
▁institucionais	-10.631
▁inventário	-10.631
▁metrô	-10.631
▁recanto	-10.631
▁república	-10.631
▁transparência	-10.631
▁tópico	-10.631
▁victor	-10.631
▁seabra	-10.631
▁tatian	-10.631
▁superior	-10.631
▁renda	-10.631
▁garcia	-10.631
▁dftrans	-10.631
▁paranoá	-10.631
licitacoes	-10.631
▁júli	-10.631
▁ofício	-10.631
▁segue	-10.631
▁conclusivo	-10.631
▁regularização	-10.631
▁leilão	-10.631
▁gord	-10.631
▁coutinho	-10.631
▁impugnação	-10.631
nice	-10.6311
▁assim	-10.6311
▁validade	-10.6311
▁moraes	-10.6311
▁caval	-10.6312
▁trans	-10.6313
▁31.452	-10.6313
▁gilmar	-10.6313
▁nesta	-10.6314
▁definido	-10.6316
iança	-10.6316
mbos	-10.6317
▁fabian	-10.6317
▁correios	-10.6318
▁0001-56	-10.6319
▁extraordinária	-10.6322
172	-10.6324
▁viii	-10.6326
▁2006,	-10.6328
▁disciplinares	-10.6328
34,	-10.633
▁37.39	-10.6331
▁1985	-10.6332
▁convocados	-10.6333
▁fabrici	-10.6334
▁contemplado	-10.6351
▁estratégicos	-10.6356
▁63,	-10.6364
▁hidrômetros	-10.6375
094	-10.6386
68,	-10.6388
▁correia	-10.64
▁220	-10.6413
▁102,	-10.6426
▁consultoria	-10.6426
ilton	-10.6429
man	-10.643
nr	-10.6431
▁benefícios	-10.6449
ula	-10.6455
962	-10.6467
▁can	-10.6478
▁face	-10.6481
▁34,	-10.6506
▁2.3	-10.6507
▁estação	-10.6526
▁1)	-10.6533
-18	-10.6552
▁pu	-10.6556
▁1995	-10.6565
▁medic	-10.6572
valdo	-10.6582
▁realizadas	-10.6588
▁131	-10.6612
7-4,	-10.6627
▁mídia	-10.6633
▁equivalente	-10.6633
ste	-10.664
▁ref	-10.6642
▁dpdf	-10.6643
,60	-10.6643
162	-10.6657
ex	-10.6659
cle	-10.6659
▁169	-10.6661
erente	-10.6672
137	-10.6683
-04,	-10.6698
▁urbanas	-10.6703
▁38.6	-10.6712
▁145	-10.6712
59,	-10.6713
▁fe	-10.6716
15.000,00	-10.6725
▁cessar	-10.6731
72,00	-10.6736
▁00060-0054	-10.6756
0.0	-10.6764
-19	-10.6774
▁tenente	-10.6786
5-6,	-10.6791
257	-10.6797
127	-10.6806
14,	-10.6806
▁413	-10.6817
pode	-10.6823
rg	-10.6831
▁91,	-10.6836
63,	-10.6843
▁55,	-10.6844
▁00060-0001	-10.6847
316	-10.6849
▁58,	-10.685
▁restrito	-10.6851
▁quant	-10.6868
▁147.	-10.6881
iii	-10.6884
▁90,	-10.6897
▁171	-10.69
inf	-10.6901
ero	-10.691
oq	-10.6917
229	-10.6918
torno	-10.692
uras	-10.6932
▁entidade	-10.6935
▁estudo	-10.6936
▁exame	-10.6937
7;	-10.6941
3-1,	-10.6946
▁66,	-10.6965
projeto	-10.6968
código	-10.6968
nome	-10.6972
▁declara	-10.6973
designar	-10.6982
gar	-10.6984
▁dá	-10.6985
30.	-10.7004
▁brun	-10.7015
istência	-10.7024
▁cirúrgica	-10.7024
▁supracitada	-10.7024
subsidiariamente	-10.7024
última	-10.7024
–	-10.7024
▁00310-	-10.7024
▁adulto	-10.7024
▁aluno	-10.7024
▁bandeirante	-10.7024
▁diversas	-10.7024
▁empreitada	-10.7024
▁lacerda	-10.7024
▁mesquita	-10.7024
▁patrimonial	-10.7024
▁previsão	-10.7024
▁proferid	-10.7024
▁sagraram	-10.7024
▁scaggion	-10.7024
▁subsolo	-10.7024
▁supervisão	-10.7024
▁terceiro	-10.7024
▁veiculação	-10.7024
▁priscil	-10.7024
▁passos	-10.7024
▁ibram	-10.7024
roduzid	-10.7024
▁bolsa	-10.7024
▁slti	-10.7024
▁negr	-10.7024
▁rangel	-10.7024
▁vitor	-10.7024
▁mercado	-10.7024
▁0006-24	-10.7024
▁inclusão	-10.7024
▁mandato	-10.7025
▁cassia	-10.7025
▁inver	-10.7025
▁soluc	-10.7025
fcdf	-10.7025
ini	-10.7025
▁prado	-10.7025
▁internacional	-10.7025
▁unit	-10.7026
▁73901	-10.7026
clima	-10.7026
▁suele	-10.7027
▁7.163	-10.7027
▁exclusivamente	-10.7027
metro	-10.7032
▁extrato	-10.7032
▁chaves	-10.7032
▁3213-75	-10.7036
▁braga	-10.7037
▁lar	-10.7037
▁simo	-10.7038
▁composição	-10.704
▁rrm	-10.7043
0-6,	-10.7047
▁she	-10.7048
▁1989	-10.7048
pag	-10.7051
▁escrivão	-10.7053
▁vera	-10.7071
▁teles	-10.7074
▁vivian	-10.7076
▁26,	-10.7076
érica	-10.7077
▁esgotos	-10.71
189	-10.7104
▁141	-10.7136
▁retificad	-10.7138
qui	-10.7143
▁coro	-10.7154
▁§2	-10.7156
▁inf	-10.7167
▁2013;	-10.7169
mer	-10.7181
82.	-10.7201
rios	-10.7202
▁camil	-10.7212
574	-10.7226
▁ai	-10.7237
▁128	-10.7245
mi	-10.7249
107	-10.7255
▁retorna	-10.7267
▁211,	-10.7291
▁bel	-10.7303
▁hosp	-10.7306
5;	-10.731
▁019	-10.7326
dora	-10.7326
105	-10.7347
92-8,	-10.7361
428	-10.7363
nc	-10.7365
▁56	-10.7367
▁64	-10.7373
▁leiloeiro	-10.7373
▁gás	-10.7373
3-0,	-10.7381
lma	-10.7384
ic	-10.7386
418	-10.7392
▁daniell	-10.7396
▁fo	-10.7396
▁130	-10.7413
pp	-10.7423
▁ros	-10.744
▁054.001.	-10.7462
ara	-10.7468
vistas	-10.7479
caixa	-10.7519
▁ciência	-10.7525
▁140	-10.7534
1.03	-10.7535
232	-10.7541
▁dora	-10.7558
men	-10.7568
038	-10.7575
134,	-10.7579
▁51	-10.7589
▁1.3	-10.7591
▁62,	-10.76
acial	-10.7637
lia	-10.7638
.164	-10.7639
▁ben	-10.7644
▁je	-10.7647
pas	-10.7691
▁placa	-10.7699
▁mencionada	-10.7699
▁suspenso	-10.7703
▁133	-10.7705
▁apresentado	-10.7717
sap	-10.774
-08,	-10.7769
▁00080-	-10.7779
▁&	-10.7783
209	-10.7783
▁jorna	-10.7787
▁nd	-10.7787
▁hidr	-10.7788
▁st	-10.7789
▁cd	-10.7791
▁sindica	-10.7793
tório	-10.7793
▁00391-	-10.7793
▁3313.849	-10.7793
▁wagn	-10.7793
▁contratuais	-10.7793
econômica	-10.7793
▁buriti	-10.7793
▁bárbara	-10.7793
▁candidata	-10.7793
▁concedo	-10.7793
▁corrigi	-10.7793
▁diploma	-10.7793
▁energética	-10.7793
▁estratégia	-10.7793
▁federativa	-10.7793
▁francisca	-10.7793
▁gondim	-10.7793
▁hammes	-10.7793
▁hospfar	-10.7793
▁hídricos	-10.7793
▁inclusive	-10.7793
▁irregularidades	-10.7793
▁mendonça	-10.7793
▁mínimo	-10.7793
▁patrocínio	-10.7793
▁raimund	-10.7793
▁readaptação	-10.7793
▁recolhi	-10.7793
▁secretária	-10.7793
▁sinalização	-10.7793
▁zoológico	-10.7793
▁almoxarifado	-10.7793
▁cardiologia	-10.7793
▁clinica	-10.7793
▁dgp	-10.7793
▁freire	-10.7793
▁sólidos	-10.7793
00480	-10.7793
▁mérito	-10.7793
▁antecedentes	-10.7793
▁lúci	-10.7793
▁órteses	-10.7793
▁rilc	-10.7793
▁proceder	-10.7793
▁folha	-10.7793
▁aquisições	-10.7794
▁integrar	-10.7794
▁diego	-10.7794
▁intimado	-10.7794
▁geração	-10.7795
▁rabelo	-10.7795
▁emergência	-10.7795
▁obedece	-10.7795
▁valter	-10.7796
▁proprietário	-10.7796
▁primária	-10.7796
▁foto	-10.7797
▁notificação	-10.7797
▁19712	-10.7798
▁conceição	-10.7798
▁genf	-10.7798
▁thais	-10.7799
▁preventiva	-10.7799
▁4.584	-10.78
poli	-10.78
▁coap	-10.78
▁protocolo	-10.78
▁diante	-10.7805
▁xii	-10.7806
4-5,	-10.7809
dia	-10.7812
▁fut	-10.7814
▁wel	-10.7815
▁2004.	-10.7815
▁bancário	-10.7816
0053.	-10.7826
eder	-10.7833
▁ha	-10.7838
2.000	-10.7844
▁saldo	-10.7844
▁2018-31	-10.7848
▁00060-0035	-10.7852
cal	-10.7858
▁2018-19	-10.7867
lan	-10.7867
▁penalidades	-10.7876
▁tha	-10.7881
lvar	-10.7884
legislativa	-10.7888
empresa	-10.789
▁005	-10.789
▁entidades	-10.7891
▁344	-10.7893
▁2018-95	-10.7893
adjunto	-10.7895
,50	-10.7901
▁an	-10.7902
▁proc	-10.7906
▁luz	-10.7908
▁emas	-10.7908
▁utilizado	-10.7926
▁00060-0046	-10.7926
▁prédio	-10.7929
885	-10.793
74,	-10.7945
http	-10.7949
▁monitor	-10.795
▁6°	-10.7953
curso	-10.7955
ml	-10.7956
87,	-10.7959
.457	-10.7961
41;	-10.7962
bens	-10.7965
ssp	-10.7966
matrícula	-10.7984
tica	-10.7989
▁prorroga	-10.7993
▁339039.	-10.7998
▁senhora	-10.8008
iano	-10.8015
▁0002	-10.8026
▁129	-10.8028
▁2005	-10.8035
ke	-10.8042
lista	-10.8047
072	-10.8053
cha	-10.8059
005	-10.8077
ler	-10.8099
7-7,	-10.81
mb	-10.8112
aine	-10.8118
▁2010.	-10.8122
ssen	-10.8125
ang	-10.8126
▁tri	-10.8148
cumprimento	-10.8149
▁44,	-10.8156
▁fábi	-10.8173
rom	-10.8173
▁mari	-10.8196
387	-10.8199
81.	-10.8216
dula	-10.8217
16,	-10.8224
▁73,	-10.8232
▁108	-10.8259
▁importa	-10.826
144	-10.8279
▁hu	-10.8287
▁faze	-10.829
043	-10.8292
73.	-10.8311
▁mart	-10.8323
vice	-10.8327
ka	-10.8374
7-2,	-10.8376
108	-10.8376
mil	-10.8399
▁339039	-10.8409
imir	-10.8423
99,	-10.8426
8,00	-10.8445
dval	-10.8478
▁2018-14	-10.8479
▁2001,	-10.8502
inici	-10.8506
rn	-10.8514
▁95,	-10.8522
▁cur	-10.8534
▁esgoto	-10.8537
▁penalidade	-10.8537
▁pol	-10.8537
048	-10.8544
...";	-10.8545
adora	-10.8568
▁aprova	-10.8575
00.000,00	-10.8575
034	-10.8577
▁fic	-10.8577
▁informa	-10.8586
▁efetua	-10.8602
987	-10.8603
13,	-10.8613
33.90.30	-10.8613
▁celebra	-10.8617
▁exclusiva	-10.8623
▁xxvi	-10.8623
▁governador	-10.8623
▁conex	-10.8624
zar	-10.8625
▁hospit	-10.8626
▁encerra	-10.8626
assunção	-10.8626
bernardo	-10.8626
profissional	-10.8626
saude	-10.8626
▁174.572-7,	-10.8626
▁cessionário	-10.8626
▁classificada	-10.8626
▁comerciais	-10.8626
▁composto	-10.8626
▁damasceno	-10.8626
▁dispêndio	-10.8626
▁divisão	-10.8626
▁estéril	-10.8626
▁fazendária	-10.8626
▁funap	-10.8626
▁individual	-10.8626
▁integrante	-10.8626
▁investigações	-10.8626
▁módulo	-10.8626
▁neonatologia	-10.8626
▁operação	-10.8626
▁previdência	-10.8626
▁regiões	-10.8626
▁suplemento	-10.8626
▁tadeu	-10.8626
▁tamanho	-10.8626
▁trabalhado	-10.8626
▁universidade	-10.8626
▁cláudi	-10.8626
▁aceita	-10.8626
▁flávi	-10.8626
▁inalteradas	-10.8626
▁"...4°	-10.8626
▁criação	-10.8626
▁00040-0006	-10.8627
▁chagas	-10.8627
▁luís	-10.8627
▁28845090300	-10.8627
▁seedf	-10.8627
tratores	-10.8627
▁condição	-10.8627
▁retificação	-10.8627
▁monitoramento	-10.8627
▁igualdade	-10.8627
▁23901	-10.8627
▁2018-12.	-10.8628
xvii	-10.8628
▁0001-01,	-10.8628
▁regra	-10.8628
treze	-10.8629
neiras	-10.8629
prcon	-10.8629
▁supramencionada	-10.8629
bolso	-10.863
▁corretiva	-10.8631
▁semanais	-10.8631
▁1.659.	-10.8631
▁posteriores	-10.8632
▁inalterado	-10.8632
▁acumulação	-10.8633
▁aquino	-10.8633
▁publicar	-10.8633
▁elaborado	-10.8634
▁voluntária	-10.8635
▁sexta	-10.8635
▁categoria	-10.8637
▁0001-44	-10.8638
▁sanção	-10.8638
▁equipe	-10.8638
▁rela	-10.8643
▁suposta	-10.8644
▁emerg	-10.865
▁1.660.	-10.865
▁médio	-10.8651
▁complexo	-10.8651
▁alocad	-10.8655
noel	-10.8656
033	-10.8659
▁claras	-10.8662
▁relacionadas	-10.8663
▁109	-10.8665
16;	-10.8665
▁maia	-10.8666
468	-10.8669
▁dpe	-10.8671
stância	-10.8678
cl	-10.8679
053	-10.8685
▁174.6	-10.8689
▁imóveis	-10.8694
828	-10.8694
▁2018-13	-10.8698
▁xiv	-10.8698
▁arma	-10.8699
196	-10.8709
▁remo	-10.8709
▁39	-10.8713
▁9°	-10.8719
lt	-10.8724
30,	-10.8731
heli	-10.8735
uel	-10.8739
▁edita	-10.8749
alf	-10.8758
▁155	-10.8758
clor	-10.8764
9.2	-10.8775
ust	-10.878
▁ratificação	-10.8787
▁2018-15	-10.8795
▁500	-10.8796
▁novo	-10.8803
rea	-10.8804
▁justificativas	-10.8804
▁postos	-10.881
▁2018-10	-10.8819
▁2015-	-10.8821
dy	-10.8829
ju	-10.883
▁2018-81	-10.8841
▁129,	-10.8844
670	-10.8852
▁2014;	-10.8869
▁7°	-10.887
▁bra	-10.8878
moto	-10.8879
▁00150-0001067	-10.8896
▁adequad	-10.8908
▁alimento	-10.8911
535	-10.8912
pen	-10.8919
▁pai	-10.8938
uri	-10.8938
39,	-10.8955
▁cb	-10.896
▁outorga	-10.896
130,	-10.897
7-6,	-10.8971
pd	-10.8984
60.	-10.8985
▁custea	-10.8987
86,00	-10.8988
▁124,	-10.8995
pro	-10.9015
▁110,	-10.9021
262	-10.9036
▁israel	-10.9041
pgdf	-10.9048
▁61,	-10.9063
setecentos	-10.9066
próximo	-10.9074
icio	-10.9075
▁000	-10.9084
ui	-10.9099
lote	-10.9099
▁elian	-10.9116
4-7,	-10.9129
▁eletrônicos	-10.9137
9-1,	-10.9145
001	-10.9147
▁78,	-10.9147
045	-10.9157
▁1995,	-10.9158
061	-10.9163
462	-10.9167
323	-10.9187
▁maior	-10.9216
▁1658	-10.9221
eri	-10.9225
▁1440	-10.9243
elis	-10.9244
▁possui	-10.9247
165	-10.9256
ger	-10.9265
bia	-10.9272
brb	-10.9297
51.	-10.93
av	-10.9312
32.	-10.9316
382	-10.9316
▁ampola	-10.9323
8-9,	-10.9326
0-8,	-10.9329
▁gra	-10.9329
▁179	-10.9339
512	-10.9352
697	-10.9357
6.000,00	-10.9358
▁centros	-10.9363
19-	-10.9373
527	-10.9376
▁cargos	-10.9379
▁cai	-10.9382
▁3.2.	-10.9382
▁nu	-10.9383
119	-10.94
▁dipe	-10.9401
idos	-10.9417
cul	-10.9421
tz	-10.9422
▁garanti	-10.9428
▁laboratório	-10.9442
▁hidrômetro	-10.9447
▁175	-10.9455
▁114	-10.9477
rio	-10.9496
ire	-10.9497
593	-10.9505
▁00060.004	-10.9506
▁elimina	-10.9514
▁efetiva	-10.9519
0-0,	-10.9519
▁rob	-10.9521
▁1.6	-10.9526
tran	-10.9528
quadr	-10.9528
▁15.0	-10.9529
idrat	-10.9531
..."	-10.9531
▁expressa	-10.9535
dezessete	-10.9536
ônibus	-10.9536
▁alcantara	-10.9536
▁botelho	-10.9536
▁colegiada	-10.9536
▁comprove	-10.9536
▁consulta	-10.9536
▁decidiu	-10.9536
▁drenagem	-10.9536
▁ehlers	-10.9536
▁elizabet	-10.9536
▁exigido	-10.9536
▁exonerou	-10.9536
▁expensas	-10.9536
▁fátima	-10.9536
▁galvão	-10.9536
▁julgado	-10.9536
▁macedo	-10.9536
▁magalhaes	-10.9536
▁motorista	-10.9536
▁patrimoniais	-10.9536
▁pontuação	-10.9536
▁previdenciária	-10.9536
▁recuperação	-10.9536
▁requerimento	-10.9536
▁simões	-10.9536
▁srssu	-10.9536
▁supracitado	-10.9536
▁suprimentos	-10.9536
▁tecnic	-10.9536
▁adicionais	-10.9536
▁falecid	-10.9536
▁dimens	-10.9536
▁cerqueira	-10.9536
▁lilian	-10.9536
▁comodato	-10.9536
▁inatividade	-10.9536
▁xxi	-10.9536
▁combatente	-10.9536
▁residente	-10.9536
▁emprego	-10.9536
▁haver	-10.9536
▁aprovo	-10.9536
longo	-10.9536
▁willia	-10.9536
▁passagens	-10.9536
tícia	-10.9536
4.934	-10.9537
▁requisitante	-10.9537
▁multi	-10.9538
▁secundária	-10.9539
▁encontrava	-10.954
▁posteriormente	-10.9541
sso	-10.9541
▁cliente	-10.9542
▁excepcional	-10.9542
3-9,	-10.9546
▁fagundes	-10.9549
▁habilitado	-10.9549
▁homologar	-10.955
▁00040-	-10.9551
▁direta	-10.9552
▁autorizado	-10.9552
áveis	-10.9554
fios	-10.9556
9-7,	-10.9556
▁seagri	-10.9557
▁0001-43	-10.9558
▁221	-10.9561
▁guarda	-10.9561
tar	-10.9563
216	-10.9565
▁2012.	-10.957
▁silvio	-10.9581
▁joa	-10.9587
8-6,	-10.9588
▁33.90.30.	-10.9591
▁dip	-10.9592
▁2018-43	-10.9597
176	-10.96
▁licitantes	-10.96
▁emater	-10.9616
▁ka	-10.9617
204	-10.9617
▁levantamentos	-10.9618
▁pelas	-10.9627
807	-10.9637
sina	-10.9638
▁1661	-10.964
▁descrito	-10.9642
ando	-10.9652
90,00	-10.9652
2.420	-10.9656
.71	-10.9661
rose	-10.9672
je	-10.9676
2,00	-10.9679
391	-10.968
▁1.661.	-10.9695
271	-10.9698
▁masculino	-10.9699
▁necessários	-10.9705
1-19	-10.9712
▁120	-10.9712
liv	-10.9721
▁die	-10.9722
▁440	-10.9724
008	-10.973
net	-10.9731
▁2018-89	-10.9732
▁cé	-10.9736
▁vila	-10.9738
▁16101	-10.9741
3),	-10.9745
▁37.1	-10.9748
▁157	-10.9748
00,	-10.9759
▁00055-	-10.9775
334	-10.9791
419,	-10.9793
97.	-10.9793
▁376	-10.9794
97-	-10.9813
izado	-10.9814
9-5,	-10.9825
▁entrada	-10.983
92.	-10.9837
ptado	-10.9849
031	-10.985
▁405	-10.9855
8-8,	-10.9861
▁0003-	-10.9861
-2	-10.9865
alda	-10.9865
tti	-10.9891
▁5.2	-10.9893
▁legislativo	-10.9896
ila	-10.9897
▁porto	-10.9898
▁k	-10.9909
▁0009	-10.9916
▁tani	-10.9927
50,00	-10.9943
▁2018-11	-10.995
01-	-10.9952
▁pan	-10.996
cem	-10.9962
por	-10.9967
peri	-10.997
8-1,	-10.9972
326	-10.9977
4-4,	-10.9982
▁53,	-10.9993
nde	-10.9995
051	-10.9997
▁246	-11.0012
▁132	-11.0012
01;	-11.0016
00432	-11.0016
6.743	-11.0019
▁024	-11.0023
▁2013.	-11.0028
1.0001	-11.0035
▁092.005	-11.0035
ing	-11.0041
▁realizados	-11.0045
3-5,	-11.0057
5-0	-11.0063
213,	-11.009
van	-11.0091
814	-11.0091
▁200	-11.0106
104,	-11.011
▁xli	-11.0115
▁77,	-11.0149
742	-11.0151
▁implementa	-11.0159
tuação	-11.0163
nds	-11.0164
lon	-11.0181
lei	-11.0195
▁const	-11.02
4-9,	-11.0201
93,	-11.0207
▁est	-11.0209
▁lin	-11.0209
aria	-11.0211
acao	-11.0218
este	-11.0222
bal	-11.0223
rito	-11.0224
ney	-11.0233
▁permanece	-11.0241
9.6	-11.0244
6-0,	-11.0251
62.	-11.0305
▁instituição	-11.031
redação	-11.0314
lor	-11.0318
fiscal	-11.0327
prêmio	-11.0328
▁1988,	-11.0332
420	-11.0335
5-0,	-11.0336
.556	-11.0336
▁esportes	-11.034
▁00060-001	-11.0348
para	-11.0349
▁anti	-11.035
marca	-11.0351
▁201	-11.0354
8-0,	-11.0368
465	-11.0368
473	-11.0371
▁adot	-11.0373
missão	-11.0377
▁doce	-11.0381
ema	-11.0393
▁eric	-11.0395
▁situado	-11.0401
▁regulador	-11.0408
▁camp	-11.0412
897	-11.0418
▁luci	-11.0427
▁cadastr	-11.0428
▁indica	-11.0433
38,	-11.0441
▁usuário	-11.0444
▁1.1.	-11.0444
▁levantamento	-11.0445
▁0113-	-11.0448
▁praça	-11.0448
685	-11.0456
2-6,	-11.0457
▁56.	-11.047
nil	-11.0478
▁aq	-11.048
▁00060-000	-11.0481
▁identifica	-11.0487
lina	-11.0492
▁fase	-11.05
cos	-11.0511
▁endereços	-11.0512
▁equip	-11.0525
bol	-11.0527
tória	-11.0528
▁adquir	-11.0528
nilda	-11.053
▁2018-61	-11.053
▁reuni	-11.0531
▁condutor	-11.0531
▁proprie	-11.0532
▁00070-	-11.0532
ô	-11.0533
â	-11.0534
=	-11.0535
extensão	-11.0535
privada	-11.0535
sanitária	-11.0535
▁acidente	-11.0535
▁arruda	-11.0535
▁candido	-11.0535
▁cavalcanti	-11.0535
▁criminais	-11.0535
▁decorrência	-11.0535
▁esgotamento	-11.0535
▁guerra	-11.0535
▁herbe	-11.0535
▁hipótese	-11.0535
▁iluminação	-11.0535
▁infusão	-11.0535
▁jaime	-11.0535
▁máquina	-11.0535
▁neonatal	-11.0535
▁pauta	-11.0535
▁recolher	-11.0535
▁rejeito	-11.0535
▁reutilizáveis	-11.0535
▁suspensa	-11.0535
▁trabalhista	-11.0535
▁uruguai	-11.0535
▁vargas	-11.0535
▁óbito	-11.0535
soluções	-11.0536
▁providencia	-11.0536
iense	-11.0536
▁residi	-11.0536
▁integração	-11.0536
▁caldeira	-11.0536
▁26.851	-11.0536
▁aberta	-11.0536
glp	-11.0536
▁vistoria	-11.0536
▁divin	-11.0536
▁milhão	-11.0536
▁pertencente	-11.0536
▁campanha	-11.0536
▁instituidor	-11.0536
▁banca	-11.0536
▁filha	-11.0536
▁capit	-11.0536
▁nutrição	-11.0536
▁diárias	-11.0536
▁super	-11.0536
▁reagente	-11.0536
▁reconheço	-11.0536
▁tenha	-11.0536
▁citado	-11.0537
▁08:30	-11.0537
▁cadeiras	-11.0537
xima	-11.0537
▁ajl	-11.0537
▁falta	-11.0537
soft	-11.0537
▁geys	-11.0537
▁vaz	-11.0537
▁hélio	-11.0537
▁0009-04	-11.0537
▁simplesmente	-11.0538
conveniência	-11.0538
▁transferir	-11.0538
▁3.5.	-11.0539
crição	-11.0539
ntini	-11.0539
▁considerada	-11.054
▁carimbos	-11.0541
circulação	-11.0541
heus	-11.0542
▁orientação	-11.0543
instituições	-11.0544
▁asfáltica	-11.0546
▁xiii	-11.0547
▁determinações	-11.0548
iades	-11.0548
▁expedido	-11.0549
448	-11.0549
▁xv	-11.0549
▁faceb	-11.0549
▁2018-09	-11.055
.11.2018	-11.055
▁060.01	-11.0552
▁00080-000	-11.0553
▁112.000	-11.0553
▁depend	-11.0554
5.453	-11.0555
▁37.949	-11.0555
▁apena	-11.0557
▁caroline	-11.0557
atualização	-11.0559
▁eliminado	-11.0559
▁2019-87	-11.0562
▁ham	-11.0567
▁considerar	-11.0567
▁leda	-11.0568
▁investimentos	-11.0569
▁230,	-11.0574
▁mantida	-11.0576
▁2018-56	-11.0576
▁2018-98	-11.0577
▁esportivos	-11.0579
▁2018-88	-11.0582
▁42	-11.0584
tação	-11.0586
▁desenvolve	-11.0586
3-7,	-11.0588
▁subsequentes	-11.0588
▁aosd	-11.059
▁fundamentado	-11.0593
cor	-11.0608
312	-11.0615
▁2018-53	-11.0619
mey	-11.0622
▁400	-11.0625
tão	-11.0632
▁1976	-11.0639
erior	-11.0641
▁céli	-11.0643
061)	-11.065
▁cate	-11.0652
▁suspensos	-11.0656
▁ron	-11.0658
▁ocorrer	-11.0673
▁sef	-11.0677
clei	-11.0681
▁2018-22	-11.0693
▁linha	-11.0699
▁1402	-11.0707
▁117,	-11.0717
▁052	-11.0718
▁6.1	-11.0718
303	-11.0723
tri	-11.0731
▁indicados	-11.0744
rd	-11.075
▁vencimentos	-11.0753
port	-11.0753
rin	-11.0756
▁doc	-11.0758
▁162,	-11.0782
▁2018-70	-11.0795
iva	-11.0796
▁00050-000	-11.08
2-7,	-11.0809
▁833	-11.0836
ban	-11.084
▁davi	-11.0849
▁exce	-11.0866
0.000	-11.0877
▁un	-11.0893
▁reduzid	-11.0899
▁1400	-11.0928
til	-11.0933
ved	-11.0969
▁situad	-11.0991
imo	-11.0994
▁av	-11.1002
23,	-11.1002
stituírem	-11.1004
.689,	-11.101
763	-11.102
▁sedes	-11.102
▁revogada	-11.1031
▁agências	-11.1032
2-5,	-11.1037
ências	-11.1045
▁meta	-11.1051
▁273.5	-11.1068
6-8,	-11.1074
▁post	-11.1075
▁110	-11.1088
let	-11.1088
016	-11.1111
6-4,	-11.1118
039	-11.1119
▁273.6	-11.113
779	-11.1137
501	-11.1137
▁178	-11.1139
▁presidid	-11.1139
80.	-11.1149
:00	-11.1151
▁27.7	-11.1154
218,	-11.116
int	-11.1164
▁preso	-11.1179
117	-11.118
▁023	-11.119
221	-11.119
▁8.5	-11.1225
nia	-11.1232
▁123	-11.1242
▁básicas	-11.1246
▁1.689.	-11.1247
096	-11.1252
0-1,	-11.1259
";	-11.1268
▁2018-90	-11.1274
▁060.	-11.1297
139,	-11.1302
540	-11.131
032	-11.1315
▁92,	-11.1319
▁0113-00	-11.132
mit	-11.1323
103	-11.1326
ry	-11.1349
aro	-11.136
▁nomead	-11.1385
ph	-11.1386
▁wanderl	-11.1397
▁54.	-11.1406
are	-11.1422
▁dever	-11.1426
▁33.90.39	-11.1431
▁2018-41	-11.1441
▁aur	-11.1446
▁00053-	-11.1447
ld	-11.1456
▁autoriza	-11.1457
▁imp	-11.1457
▁fontes	-11.1466
▁2018-71	-11.1466
▁19713	-11.147
1000	-11.1471
ian	-11.1485
▁estar	-11.1495
▁horári	-11.1496
1-3,	-11.1499
▁gla	-11.1499
hia	-11.1502
101;	-11.1503
cn	-11.1507
3-4,	-11.1515
▁origina	-11.1523
dmi	-11.1524
3.184,	-11.1526
093	-11.1538
▁00060-0053	-11.1541
173	-11.1542
▁174.7	-11.1547
▁planilha	-11.1551
▁1600	-11.1551
▁00370-	-11.1554
▁empreendimento	-11.1555
lico	-11.1557
epp	-11.1557
▁quantidade	-11.1561
▁habita	-11.1578
▁36.3	-11.1585
▁representad	-11.1586
ável	-11.1587
190,	-11.1595
▁158.3	-11.1603
009	-11.1606
ível	-11.1621
iníci	-11.1621
755	-11.1622
ris	-11.1628
plic	-11.1633
disponibili	-11.1633
▁alexandr	-11.1633
▁agrega	-11.1637
▁orienta	-11.1638
▁acumula	-11.1638
élio	-11.1639
▁acessóri	-11.1639
diret	-11.1639
.981	-11.1641
▁00090-	-11.1643
'	-11.1646
íveis	-11.1646
gráfica	-11.1647
▁camargo	-11.1647
▁ouvidoria	-11.1647
▁presença	-11.1647
cfopm	-11.1647
dezenove	-11.1647
pavimentação	-11.1647
prorrogáve	-11.1647
▁09.05.201	-11.1647
▁8.255	-11.1647
▁adjudicação	-11.1647
▁avenida	-11.1647
▁cabendo	-11.1647
▁cancelamento	-11.1647
▁candangolândia	-11.1647
▁ciclo	-11.1647
▁cofit	-11.1647
▁compõe	-11.1647
▁concedido	-11.1647
▁consequência	-11.1647
▁conteúdo	-11.1647
▁controlar	-11.1647
▁definitiva	-11.1647
▁difusão	-11.1647
▁estudante	-11.1647
▁externa	-11.1647
▁frequ	-11.1647
▁furtado	-11.1647
▁guimaraes	-11.1647
▁infrator	-11.1647
▁infrações	-11.1647
▁insumos	-11.1647
▁integridade	-11.1647
▁itapoã	-11.1647
▁marketing	-11.1647
▁minutos	-11.1647
▁obtido	-11.1647
▁onerosa	-11.1647
▁orçamentário	-11.1647
▁previamente	-11.1647
▁procedência	-11.1647
▁química	-11.1647
▁revestido	-11.1647
▁sigrh	-11.1647
▁sobrinho	-11.1647
▁surec	-11.1647
▁unanimidade	-11.1647
▁veloso	-11.1647
▁vinculado	-11.1647
▁anjos	-11.1647
▁comitê	-11.1647
▁cássi	-11.1647
▁segurado	-11.1647
▁definitivo	-11.1647
▁srscs	-11.1647
▁recep	-11.1647
▁00098-	-11.1647
▁medidas	-11.1647
▁integrada	-11.1647
▁odontológico	-11.1647
▁santoro	-11.1647
▁instaurada	-11.1647
▁firmino	-11.1647
▁promover	-11.1647
▁desenvolvidas	-11.1647
viola	-11.1647
▁informamos	-11.1647
▁aviso	-11.1647
▁9.250	-11.1647
▁srsce	-11.1647
▁fiel	-11.1647
▁policiamento	-11.1647
▁componentes	-11.1647
texto	-11.1647
▁barra	-11.1647
▁grama	-11.1648
enquadramento	-11.1648
▁dental	-11.1648
▁link	-11.1648
▁svs	-11.1648
▁embalage	-11.1648
▁filme	-11.1648
▁naves	-11.1648
▁instância	-11.1648
▁instaurado	-11.1648
▁kati	-11.1649
▁interina	-11.1649
▁estágio	-11.1649
edam	-11.1649
▁revisão	-11.165
▁particulares	-11.165
▁apto	-11.165
▁setorial	-11.165
▁artístico	-11.165
▁00417-	-11.165
ú	-11.1651
▁assinar	-11.1651
▁examinadora	-11.1651
▁2018-21	-11.1651
▁domiciliad	-11.1651
▁semana	-11.1652
▁sanches	-11.1653
▁ferramentas	-11.1653
▁devida	-11.1653
admc	-11.1654
▁momento	-11.1654
▁schwa	-11.1655
▁reinstaurar	-11.1655
▁acréscimo	-11.1655
▁possível	-11.1655
lvim	-11.1656
▁realizará	-11.1656
▁054.001.4	-11.1657
510	-11.1658
▁139.000.	-11.1658
▁00020-0001	-11.1658
&	-11.1662
▁alta	-11.1662
▁tela	-11.1662
▁destinada	-11.1662
3-6,	-11.1664
▁pré	-11.1664
▁instituir	-11.1665
▁10:00	-11.1666
mário	-11.1666
▁39.610	-11.1667
▁janai	-11.1672
▁0001-90	-11.1672
dico	-11.1673
▁mencionados	-11.1674
oasis	-11.1675
396	-11.1677
▁cancelado	-11.1679
▁whe	-11.1686
ís	-11.1687
▁apuratóri	-11.1688
▁homologado	-11.1689
▁bombas	-11.1695
-2018	-11.1696
815	-11.1701
▁fil	-11.1709
▁174.5	-11.1712
▁2018-47	-11.1712
1982	-11.1716
9297	-11.1722
454	-11.1723
21-5,	-11.1724
▁19714	-11.1725
▁nessa	-11.1725
.877	-11.1727
plan	-11.1733
607,	-11.1736
averba	-11.1741
▁lour	-11.1742
▁uni	-11.1747
▁apurado	-11.175
.212,	-11.1752
▁1978	-11.1754
6-6,	-11.1754
▁2018-49	-11.1755
▁2.4	-11.1757
▁conf	-11.1758
▁karolin	-11.1761
▁1977	-11.1763
qual	-11.1767
▁rege	-11.1776
▁2018-17	-11.1778
▁titulares	-11.1783
▁144,	-11.1789
4-8,	-11.179
▁2018-68	-11.1801
coro	-11.1804
fur	-11.1805
izer	-11.1811
pela	-11.1811
ologia	-11.1814
▁convênios	-11.1815
▁empregados	-11.1817
228,	-11.1817
estão	-11.1819
348	-11.1825
342	-11.1825
tima	-11.1828
ente	-11.1828
▁danil	-11.1828
217,	-11.183
▁1.5	-11.1832
▁sena	-11.1836
▁gr	-11.184
▁00060-002	-11.184
▁seg	-11.1845
nise	-11.1847
▁00053-000	-11.185
109	-11.1856
tenção	-11.1858
▁240	-11.1859
088	-11.186
antig	-11.1861
195.	-11.1862
▁2018-04	-11.1867
▁769	-11.1873
242,	-11.1875
▁maril	-11.1899
▁2018-51	-11.1899
▁2018-07	-11.1915
idas	-11.1916
2010	-11.1917
erica	-11.1924
149,	-11.1927
▁títulos	-11.1936
▁1983	-11.1942
lab	-11.1945
235	-11.1954
▁1.431.	-11.1956
▁908	-11.1981
▁1.1.1	-11.1993
▁ort	-11.2004
00413	-11.2008
can	-11.2013
▁0273	-11.2017
▁70.	-11.2019
bas	-11.2019
▁assessora	-11.2031
▁00060.000	-11.2043
026	-11.2047
max	-11.2048
▁jurídicas	-11.2059
317	-11.2062
cac	-11.2067
.163	-11.2068
▁mag	-11.2078
4-1,	-11.2089
89.	-11.2096
▁010	-11.2112
▁2011;	-11.2118
▁impe	-11.2119
▁correa	-11.2119
55.	-11.2124
▁defensora	-11.2126
dodf	-11.2142
▁medica	-11.2143
84.	-11.2149
cre	-11.215
321,	-11.2153
289	-11.2165
ofre	-11.2167
▁1435	-11.2179
▁116,	-11.219
601	-11.2213
▁hrg	-11.2234
▁ric	-11.2239
1254	-11.2245
clusão	-11.2253
▁interesses	-11.2263
▁092.00	-11.2263
4-0,	-11.2266
9-4,	-11.2281
▁reg	-11.2282
vel	-11.2288
▁ct	-11.229
101,	-11.229
ditada	-11.2292
▁orçamentárias	-11.2294
gran	-11.2302
▁092.006	-11.2326
xxx	-11.2339
▁245	-11.2358
157	-11.237
▁156	-11.2374
383	-11.2389
▁cond	-11.2393
8-5,	-11.2401
ela	-11.241
5-2,	-11.241
▁71,	-11.242
esp	-11.2427
▁1999,	-11.2434
113	-11.244
▁3.8	-11.2447
zer	-11.2447
▁159	-11.2452
.12.2018	-11.2463
325	-11.2471
▁esco	-11.2473
tivo	-11.2477
803	-11.2484
36;	-11.2486
▁900	-11.2486
▁mor	-11.2519
▁39.	-11.2527
029	-11.2536
edic	-11.254
abel	-11.2558
0008	-11.2559
▁3.8.	-11.256
▁fc	-11.2569
▁1.68	-11.2569
075	-11.2586
▁seguro	-11.2591
▁isent	-11.2613
cy	-11.2621
▁obte	-11.2629
▁cla	-11.2633
80,00	-11.2636
sch	-11.264
damente	-11.2649
cel	-11.2654
-4;	-11.2671
▁37.6	-11.2682
.758	-11.2689
▁retific	-11.2693
178	-11.2703
▁registra	-11.2704
215.	-11.2721
435	-11.2723
adm	-11.2724
▁paul	-11.2731
▁liga	-11.2759
ial	-11.276
gal	-11.2762
log	-11.2762
▁merc	-11.2764
pressão	-11.2767
▁tele	-11.2769
▁karol	-11.2769
▁2018-18	-11.277
▁00060-0052	-11.277
▁054.000.	-11.2776
▁próxim	-11.2776
▁robert	-11.2787
▁nascid	-11.2789
905	-11.28
ária	-11.2806
▁licitante	-11.2807
▁estratégico	-11.2808
▁penitenciária	-11.2809
▁signatário	-11.281
321	-11.2816
▁269	-11.2816
▁contempla	-11.2817
▁carreir	-11.282
▁identificado	-11.284
▁ag	-11.2841
▁proibi	-11.2844
reservação	-11.2849
▁executa	-11.285
472	-11.2855
▁agentes	-11.2857
cional	-11.2862
posição	-11.2865
▁complementa	-11.2869
▁relaciona	-11.2878
▁artes	-11.2879
ênio	-11.2881
.949,	-11.2881
.289	-11.2882
▁142	-11.2882
▁concei	-11.2885
▁particular	-11.2892
igor	-11.2895
▁propor	-11.2895
▁virtu	-11.2896
cionada	-11.2896
▁papilosc	-11.2897
▁caminhonet	-11.2897
▁esclarece	-11.2897
▁oportunidade	-11.2897
▁positivo	-11.2897
▁rodoviária	-11.2897
▁toxicológico	-11.2897
cidadão	-11.2897
preendido	-11.2897
▁183.536-	-11.2897
▁abrange	-11.2897
▁aragão	-11.2897
▁aéreo	-11.2897
▁chateaubriand	-11.2897
▁correlatos	-11.2897
▁danniel	-11.2897
▁decidir	-11.2897
▁diligência	-11.2897
▁décima	-11.2897
▁exterior	-11.2897
▁fabio	-11.2897
▁feitosa	-11.2897
▁fisioterapeuta	-11.2897
▁guedes	-11.2897
▁haroldo	-11.2897
▁inovação	-11.2897
▁jusceli	-11.2897
▁licenciad	-11.2897
▁maciel	-11.2897
▁oficina	-11.2897
▁plásticos	-11.2897
▁praticados	-11.2897
▁produções	-11.2897
▁projeção	-11.2897
▁residencia	-11.2897
▁rodoviário	-11.2897
▁shopping	-11.2897
▁soluçao	-11.2897
▁suprir	-11.2897
▁telégrafos	-11.2897
▁térreo	-11.2897
▁universitári	-11.2897
▁varjão	-11.2897
negativa	-11.2897
▁276.000.	-11.2897
▁armazena	-11.2897
▁preferencial	-11.2897
▁kubitschek	-11.2897
▁liofil	-11.2897
estadual	-11.2897
▁azul	-11.2897
▁ocasi	-11.2897
software	-11.2897
▁riscos	-11.2897
▁rodolfo	-11.2897
▁prata	-11.2897
▁lizian	-11.2897
saldado	-11.2897
▁contábil	-11.2897
aína	-11.2897
▁sejus	-11.2897
▁frota	-11.2897
útil	-11.2897
▁00050-0015	-11.2897
▁00111-00020	-11.2897
▁16.109	-11.2897
▁flavi	-11.2897
▁santiago	-11.2897
respeit	-11.2897
▁lugar	-11.2897
▁fhb	-11.2897
antil	-11.2897
▁asseio	-11.2897
▁recebe	-11.2897
auzi	-11.2897
▁srsso	-11.2897
▁retro	-11.2897
▁cordeiro	-11.2898
▁convenente	-11.2898
▁flora	-11.2898
▁2018-91.	-11.2898
▁inverter	-11.2898
▁sétim	-11.2898
▁interino	-11.2898
▁xxxiii	-11.2898
▁debora	-11.2898
▁senti	-11.2898
▁sqs	-11.2898
▁valdi	-11.2899
roga	-11.2899
0053;	-11.2899
▁pasta	-11.2899
▁compreendendo	-11.2899
eonato	-11.2899
▁promoção	-11.2901
▁imóvel	-11.2901
.664.4	-11.2901
fund	-11.2902
▁movimentação	-11.2902
579	-11.2902
▁grau	-11.2902
▁joaqui	-11.2903
▁ocupação	-11.2904
▁nascente	-11.2905
▁natali	-11.2906
▁12.804	-11.2906
▁cível	-11.2907
▁lu	-11.2907
▁zil	-11.2908
▁criad	-11.2909
.333	-11.2909
6-3,	-11.291
▁josemar	-11.2911
elli	-11.2912
.665	-11.2914
7-9,	-11.2915
▁center	-11.2915
▁0002-02	-11.2916
▁josef	-11.2922
▁wil	-11.2928
▁peres	-11.2931
▁lj	-11.2932
▁cope	-11.2933
▁qbm	-11.2935
▁0001-04	-11.2938
▁informar	-11.294
▁pontes	-11.294
▁débitos	-11.294
4-6,	-11.294
▁1.680.	-11.2941
zzi	-11.2941
▁leve	-11.2955
▁2018-94	-11.2955
▁edifica	-11.2956
▁0480-00015	-11.2958
▁dessa	-11.2961
▁anna	-11.2964
▁101)	-11.2964
▁aparelhos	-11.2965
raso	-11.2967
▁tamp	-11.2969
0055	-11.2971
▁2018-26	-11.2971
▁declarado	-11.2973
31.17	-11.298
xxviii	-11.2981
zia	-11.2985
▁identificados	-11.299
▁2018-87	-11.2992
▁134	-11.2997
▁josu	-11.2998
ner	-11.3
▁186,	-11.3
▁2018-63	-11.3001
▁empreendimentos	-11.3002
▁2018-34	-11.3005
áu	-11.301
1993.	-11.3013
▁usuários	-11.3014
03.00	-11.3019
▁luan	-11.3021
▁desem	-11.3025
industrial	-11.3028
▁1998;	-11.3038
▁muril	-11.304
dores	-11.3041
élic	-11.3041
▁lucio	-11.3042
5-3,	-11.3046
▁novos	-11.3052
▁cali	-11.3053
▁356	-11.3056
biano	-11.3059
▁2018-96	-11.3059
38;	-11.306
6-2,	-11.3065
-8;	-11.3074
388	-11.3074
▁basead	-11.3078
509,	-11.3081
▁mul	-11.3089
273,	-11.309
▁elétricas	-11.3101
25%	-11.3104
nacionais	-11.3114
▁209,	-11.3118
▁adit	-11.3123
▁2018-18.	-11.3125
976	-11.3125
▁andrea	-11.3125
loc	-11.313
▁ko	-11.3133
▁encontrar	-11.3134
▁2018-54	-11.3135
pli	-11.3139
354	-11.3141
▁du	-11.3145
5.000,00	-11.3148
▁consumidora	-11.3154
▁33.90.39.	-11.3156
ance	-11.3156
▁116	-11.3158
▁225	-11.316
▁1997,	-11.3165
▁2018-16	-11.3166
▁2018-32	-11.317
4.56	-11.317
pca	-11.3173
▁emerson	-11.3185
▁localizados	-11.319
▁oi	-11.3193
▁acer	-11.3195
▁00150-0001066	-11.3207
éia	-11.3207
seguros	-11.3212
▁2018-84	-11.322
▁adriano	-11.3222
▁79.	-11.3222
▁122,	-11.3226
789	-11.3227
▁"...1	-11.3235
lio	-11.3243
fas	-11.3255
▁práticas	-11.3266
▁2005.	-11.3266
war	-11.3269
▁jac	-11.3282
situado	-11.3295
▁101	-11.3303
770	-11.3318
gott	-11.3325
▁eq	-11.3327
tenente	-11.334
ventura	-11.3347
▁aplicar	-11.3358
2-3,	-11.3364
lit	-11.3375
escola	-11.3378
▁joel	-11.3379
▁183	-11.3385
▁prestar	-11.339
estre	-11.3397
acesso	-11.3398
2018	-11.3398
1.000,00	-11.3404
▁quadras	-11.3408
água	-11.341
5.1	-11.3411
dura	-11.3412
seiscentos	-11.3416
▁2018-38	-11.3417
pmdf	-11.3427
efeito	-11.3428
▁2)	-11.3435
servidores	-11.3442
servidor	-11.3444
lvi	-11.3452
▁luzia	-11.3469
ores	-11.3477
dua	-11.3489
▁2014-	-11.3489
553	-11.349
256	-11.3492
▁montan	-11.3503
▁2018-11,	-11.3506
447	-11.3509
▁orçamentos	-11.3517
138	-11.3528
mazé	-11.3535
▁0003	-11.3557
cord	-11.3558
umar	-11.3561
empresas	-11.3575
184	-11.359
▁151	-11.3596
sua	-11.3608
.764	-11.3627
▁182.	-11.3665
▁substituí	-11.367
▁resultados	-11.3671
adores	-11.3674
▁3.7	-11.368
certificados	-11.3682
ub	-11.3689
iro	-11.3691
▁155,	-11.3692
▁149	-11.3693
404	-11.3696
▁terceiriz	-11.3696
213	-11.3698
499	-11.3742
▁tan	-11.3747
460	-11.3766
1-5	-11.3769
▁00094-0001134	-11.3776
jar	-11.3779
0400-	-11.3785
738	-11.3797
▁220,	-11.3807
399	-11.3822
327	-11.3839
2-1,	-11.3846
796	-11.3853
una	-11.3854
▁23.4	-11.3855
jane	-11.3868
▁203	-11.3888
izar	-11.3892
▁124	-11.3893
cea	-11.3905
▁1.8	-11.3907
▁146	-11.3908
090	-11.3918
1.65	-11.3922
vita	-11.393
lli	-11.3968
227	-11.3971
▁2019"	-11.3988
02-	-11.4006
▁pad	-11.4009
661	-11.4026
557	-11.4042
649	-11.4057
farma	-11.4063
.171	-11.4104
▁rena	-11.4104
941	-11.411
429,	-11.4114
0-7,	-11.4117
727	-11.4135
▁ri	-11.4139
963	-11.4147
409	-11.4152
▁2.8	-11.4165
410	-11.4167
entes	-11.4174
407	-11.4197
▁195	-11.4202
▁representantes	-11.4221
▁peça	-11.4237
portação	-11.4249
▁33,	-11.4254
▁3.000,	-11.4259
▁6.2	-11.4267
138-	-11.4278
7-5	-11.4282
.11.201	-11.4288
915	-11.429
▁judicia	-11.4301
362	-11.4301
motores	-11.4302
▁comparece	-11.4305
enf	-11.4307
nça	-11.431
nato	-11.4311
▁ocupa	-11.4316
▁farmaceutic	-11.4317
▁00050-0005	-11.4319
sôni	-11.4319
▁reconheci	-11.4324
*	-11.4324
educ	-11.4325
▁loren	-11.4325
▁sucessiv	-11.4325
ssibilidade	-11.4325
▁município	-11.4325
constituída	-11.4325
curricular	-11.4325
descartável	-11.4325
engenheiro	-11.4325
liberdade	-11.4325
padronizados	-11.4325
▁0063-0003	-11.4325
▁1.401.454-8,	-11.4325
▁3465-901	-11.4325
▁[...]	-11.4325
▁adjudicatária	-11.4325
▁auditório	-11.4325
▁automóveis	-11.4325
▁caetano	-11.4325
▁catálogo	-11.4325
▁concessionária	-11.4325
▁contrapartida	-11.4325
▁contínu	-11.4325
▁corretora	-11.4325
▁detentor	-11.4325
▁distritais	-11.4325
▁décimo	-11.4325
▁elegibilidade	-11.4325
▁enteral	-11.4325
▁esclarecimento	-11.4325
▁específica	-11.4325
▁expansão	-11.4325
▁expresso	-11.4325
▁família	-11.4325
▁fotografia	-11.4325
▁gadelha	-11.4325
▁individuais	-11.4325
▁marcus	-11.4325
▁mercadorias	-11.4325
▁mudança	-11.4325
▁nápolis	-11.4325
▁ocorrência	-11.4325
▁odontólog	-11.4325
▁oportunamente	-11.4325
▁padrões	-11.4325
▁pedagógico	-11.4325
▁petróleo	-11.4325
▁pimenta	-11.4325
▁pluviais	-11.4325
▁previdencia	-11.4325
▁proponente	-11.4325
▁representações	-11.4325
▁rígido	-11.4325
▁sedestmidh	-11.4325
▁seminário	-11.4325
▁siggo	-11.4325
▁simpósio	-11.4325
▁sudoeste	-11.4325
▁titulação	-11.4325
▁tjdft	-11.4325
▁trimestral	-11.4325
▁veiga	-11.4325
▁vencendo	-11.4325
sinesp	-11.4325
▁027285	-11.4325
▁parlamentar	-11.4325
▁recena	-11.4325
▁corporação	-11.4325
▁mpog	-11.4325
quarto	-11.4325
▁capacidade	-11.4325
▁confirma	-11.4325
▁papel	-11.4325
▁temporário	-11.4325
grafo	-11.4325
sburocratização	-11.4325
▁jcdf	-11.4325
▁00390-	-11.4325
▁empresarial	-11.4325
▁expediente	-11.4325
▁direção	-11.4325
canalizaç	-11.4325
▁funcionamento	-11.4325
▁emitir	-11.4325
▁promovid	-11.4325
endimento	-11.4325
▁pieri	-11.4325
eirelli	-11.4325
▁coag	-11.4325
▁csad	-11.4325
▁2018-91;	-11.4325
▁inapt	-11.4325
▁souto	-11.4326
▁imagem	-11.4326
▁21.06.	-11.4326
▁requerente	-11.4326
▁confecção	-11.4326
vídeo	-11.4326
▁simi	-11.4326
manuel	-11.4326
queira	-11.4326
▁luva	-11.4326
tália	-11.4326
▁deliberou	-11.4326
▁inscrições	-11.4326
egel	-11.4326
▁tensão	-11.4326
▁assinado	-11.4327
▁00080-001	-11.4327
▁28.846-2	-11.4327
▁0003-63	-11.4327
▁2018-79,	-11.4327
▁sabino	-11.4328
▁lapa	-11.4328
▁kit	-11.4328
.300,00	-11.4328
iânia	-11.4328
▁rolo	-11.4328
▁gases	-11.4328
22214	-11.4328
php	-11.4329
▁então	-11.4329
▁xxiv	-11.4329
▁ivanild	-11.4329
▁posse	-11.4329
▁lira	-11.4329
1.688.	-11.4329
cíc	-11.4329
0058257	-11.4329
▁00070-0001	-11.433
▁revis	-11.433
▁michelle	-11.433
▁imediata	-11.4331
▁meira	-11.4331
▁00080.000	-11.4331
▁inserido	-11.4332
ncul	-11.4332
▁gcg	-11.4333
▁discriminado	-11.4333
▁funda	-11.4333
▁monte	-11.4334
▁ingress	-11.4334
▁061.042.	-11.4335
▁acessórios	-11.4335
▁formaliza	-11.4335
▁32.5	-11.4335
▁esportivas	-11.4336
▁clov	-11.4337
▁273.53	-11.4337
▁concluído	-11.4337
epc	-11.4338
▁4.285	-11.4338
▁1659.	-11.4339
▁viagem	-11.4339
▁ctb	-11.4339
▁bren	-11.434
▁27.90	-11.434
▁3350	-11.434
▁34.023	-11.4341
▁(166	-11.4341
▁arp	-11.4341
9037	-11.4341
▁reci	-11.4342
▁franqueada	-11.4342
▁tecnológica	-11.4342
▁sagr	-11.4344
▁recomenda	-11.4344
pina	-11.4344
7.475	-11.4344
▁44.90.52.	-11.4345
▁0001-33	-11.4345
▁comunitário	-11.4346
▁rele	-11.4347
▁1411	-11.4348
▁evang	-11.4349
▁ví	-11.4349
▁atualizado	-11.435
▁gess	-11.4351
150.	-11.4354
▁00080.	-11.4355
▁claudio	-11.4357
▁33.9	-11.4358
▁incumbid	-11.4361
municipal	-11.4362
-060.00	-11.4364
▁acolhe	-11.4365
0196-	-11.4365
▁indicada	-11.4365
▁2019-11	-11.4369
▁gestores	-11.4369
▁feminino	-11.4371
▁cip	-11.4371
▁notifica	-11.4374
▁web	-11.4377
▁rodas	-11.4378
▁aplicado	-11.4378
▁instalado	-11.4379
dson	-11.438
▁20%	-11.438
▁0001-10	-11.4381
ntegra	-11.4382
▁intra	-11.4385
▁(6	-11.4389
▁diagnósticos	-11.439
▁fracassados	-11.439
▁envi	-11.4396
▁2018-76	-11.4398
▁2018-58	-11.4398
.02.2019	-11.4403
728,	-11.4404
▁valéri	-11.4411
antes	-11.4416
▁eleito	-11.4416
2-8,	-11.4425
▁zam	-11.4429
237	-11.4429
▁destinado	-11.443
▁0001-92	-11.4432
▁dedetiza	-11.4433
mann	-11.4439
▁serra	-11.4443
▁mene	-11.4444
▁138.	-11.4446
▁2018-20	-11.4449
2-0,	-11.445
150.00	-11.4454
▁2018-23	-11.4457
cca	-11.4458
cita	-11.4462
233,	-11.4468
.279	-11.4481
202,	-11.4484
▁2018-08	-11.4486
▁248	-11.449
úv	-11.4497
▁224	-11.451
▁apresentados	-11.451
▁reguladora	-11.4515
especialidade	-11.452
188	-11.452
vp	-11.4526
590	-11.4539
rolim	-11.4541
.200-	-11.4542
mat	-11.4542
▁00020-	-11.4554
143	-11.4562
via	-11.4567
▁internas	-11.4567
1-2,	-11.4568
▁35.56	-11.4571
rivan	-11.4572
eres	-11.4572
925	-11.4574
▁2018-16.	-11.458
62-	-11.4582
ite	-11.4589
▁237,	-11.4591
▁tributários	-11.4608
101-	-11.4611
253	-11.4611
5.09	-11.4615
45-2,	-11.4615
▁235,	-11.4616
▁00060-004547	-11.4616
▁2.2.	-11.4621
▁mesmas	-11.4623
▁nutricion	-11.4625
▁2018-71.	-11.4628
.2018.8.07.0018)	-11.463
197	-11.464
▁39.61	-11.4645
▁solicitar	-11.465
▁foment	-11.4653
7-8,	-11.4664
9-9,	-11.4666
▁daniela	-11.4667
▁00410-0001	-11.4667
▁créditos	-11.4667
▁boa	-11.4682
320,	-11.4694
▁provas	-11.4697
elia	-11.4706
▁kei	-11.4706
ken	-11.4708
810	-11.4715
▁291	-11.4724
▁territórios	-11.4727
719	-11.4728
▁fixado	-11.4735
▁etc	-11.4752
▁delibera	-11.4757
assi	-11.4757
iti	-11.476
445	-11.4764
9.611	-11.4779
▁instrumentos	-11.4787
▁veda	-11.48
cp	-11.4802
tico	-11.4829
▁240,	-11.4857
pic	-11.4862
erir	-11.4875
mai	-11.4878
306	-11.4882
ativo	-11.4902
pactua	-11.4904
▁00094-000113	-11.4927
▁2018-90,	-11.4927
241	-11.4928
▁fal	-11.4928
910	-11.4937
381	-11.4947
8-7,	-11.4948
chi	-11.4959
ii	-11.497
.09.201	-11.4974
955	-11.4985
▁care	-11.499
223	-11.5013
▁2019-12	-11.5019
7.77	-11.5042
900.	-11.5045
.904	-11.5046
.297	-11.5049
▁bar	-11.5059
estações	-11.5063
9-8,	-11.5072
▁mora	-11.5078
cial	-11.5093
106	-11.5104
▁2018-02	-11.5116
552	-11.5124
qp	-11.5134
087	-11.5145
0014	-11.5159
▁rogeri	-11.5174
8-4,	-11.5176
▁prossegui	-11.5182
▁ades	-11.5183
▁parcelas	-11.5187
.743	-11.5193
▁alci	-11.5198
046	-11.5202
▁silv	-11.5227
▁015	-11.5229
▁79,	-11.5244
739	-11.5249
▁309	-11.5257
alis	-11.5268
.483	-11.5292
▁86,	-11.5299
▁clo	-11.5307
7-1,	-11.5314
3-2	-11.5329
▁fundamentos	-11.5329
314	-11.5335
hosp	-11.5335
.575	-11.5343
282	-11.5343
432	-11.5364
.669	-11.5369
827	-11.5371
▁mon	-11.5372
str	-11.5379
▁magn	-11.5388
00431	-11.5395
riel	-11.5396
▁conveni	-11.5403
iência	-11.5413
inss	-11.5414
kar	-11.5416
taguatinga	-11.5418
▁aplica	-11.5421
▁rec	-11.5428
brasil	-11.543
programa	-11.5433
técnico	-11.5438
militar	-11.5439
.021-	-11.5441
serviços	-11.5442
educação	-11.5443
assessor	-11.5443
009,	-11.5447
rive	-11.5448
▁27.8	-11.5448
▁vias	-11.5451
base	-11.5464
resen	-11.5477
▁cris	-11.5483
485	-11.5495
.509	-11.5501
603	-11.5502
041	-11.5534
▁39.546	-11.5585
6012	-11.5596
909	-11.5603
▁notificados	-11.5606
786	-11.561
gens	-11.5615
não	-11.5624
882	-11.5625
▁192,	-11.565
▁46,	-11.5652
▁1992	-11.5659
▁153	-11.5675
▁0480-000	-11.5679
▁37.0	-11.5684
ty	-11.5686
epi	-11.5687
lv	-11.5689
▁0005	-11.5697
▁3.2	-11.5699
tificar	-11.57
4-0	-11.5726
ez	-11.5744
▁00060-0002	-11.5748
-75.	-11.5753
928	-11.5767
▁148	-11.5774
ndro	-11.5779
8.000,00	-11.5795
650	-11.5803
vid	-11.5818
▁esti	-11.5819
▁rest	-11.5828
"...2	-11.5842
581	-11.5843
▁1.40	-11.5844
ntre	-11.5844
60,00	-11.5848
8.70	-11.5866
364	-11.588
alter	-11.5895
▁cpl	-11.5899
▁subsequente	-11.5901
▁aparelho	-11.5912
trata	-11.592
621	-11.592
759	-11.5921
0-4,	-11.5923
cadas	-11.5926
izando	-11.5928
silen	-11.5933
rez	-11.5933
6-7,	-11.5935
▁055-01	-11.5936
▁quim	-11.5938
▁institui	-11.5939
ório	-11.5941
postas	-11.595
mont	-11.595
39-8	-11.5952
▁constitui	-11.5957
lam	-11.5972
▁resolv	-11.5973
.206.	-11.5974
▁verific	-11.5976
▁agra	-11.5976
▁possíve	-11.5979
prev	-11.5979
▁educaciona	-11.5979
chave	-11.598
▁import	-11.5983
▁romil	-11.5986
▁212	-11.5987
▁simples	-11.5988
otáv	-11.599
cedida	-11.599
▁planeja	-11.599
▁planalt	-11.5991
▁tribut	-11.5991
▁00052-	-11.5992
▁10.4	-11.5992
tiago	-11.5992
▁cabíveis	-11.5992
▁cirurgic	-11.5992
▁usufruídos	-11.5992
cicletas	-11.5992
deomonitoramento	-11.5992
dinho	-11.5992
exclusividade	-11.5992
ferroviário	-11.5992
tronic	-11.5992
vigilância	-11.5992
vírgula	-11.5992
▁112.003.	-11.5992
▁429.000.2	-11.5992
▁438.0156	-11.5992
▁acompanhado	-11.5992
▁aposentou	-11.5992
▁atendida	-11.5992
▁biodiversidade	-11.5992
▁bonfim	-11.5992
▁borba	-11.5992
▁campelo	-11.5992
▁características	-11.5992
▁consignada	-11.5992
▁creche	-11.5992
▁credenciado	-11.5992
▁deduzido	-11.5992
▁digitais	-11.5992
▁dúvidas	-11.5992
▁espaldar	-11.5992
▁falecimento	-11.5992
▁farmácia	-11.5992
▁florencio	-11.5992
▁goulart	-11.5992
▁horizonte	-11.5992
▁indeferido	-11.5992
▁injetável	-11.5992
▁inspetor	-11.5992
▁jeff	-11.5992
▁limitado	-11.5992
▁mensais	-11.5992
▁miguel	-11.5992
▁parenteral	-11.5992
▁patologic	-11.5992
▁pluvial	-11.5992
▁popula	-11.5992
▁prates	-11.5992
▁probatório	-11.5992
▁programática	-11.5992
▁ressarcimento	-11.5992
▁restaram	-11.5992
▁restrição	-11.5992
▁saldanha	-11.5992
▁socioeducativa	-11.5992
▁tolentino	-11.5992
▁trazido	-11.5992
▁turma	-11.5992
▁438.0155	-11.5992
▁acessibilidade	-11.5992
▁agendamento	-11.5992
▁apontad	-11.5992
▁barreira	-11.5992
▁barreiro	-11.5992
▁exercid	-11.5992
▁imobiliários	-11.5992
▁laboratoria	-11.5992
▁lojas	-11.5992
▁meireles	-11.5992
▁noroeste	-11.5992
▁pimentel	-11.5992
▁temporária	-11.5992
▁visual	-11.5992
▁8.112	-11.5992
▁josimar	-11.5992
▁elevadores	-11.5992
▁1.676.	-11.5992
▁vegeta	-11.5992
▁00113-	-11.5992
▁flexíveis	-11.5992
▁publicações	-11.5992
▁quitação	-11.5992
▁portela	-11.5992
▁171020	-11.5992
▁escala	-11.5992
azep	-11.5992
▁aplicáveis	-11.5992
▁servicos	-11.5992
▁houve	-11.5992
seringa	-11.5992
trícia	-11.5992
▁00390.	-11.5992
▁gonzaga	-11.5992
▁ayres	-11.5992
▁subsaúde	-11.5992
▁34.213	-11.5992
▁33.49	-11.5992
ufr	-11.5992
▁nobrega	-11.5992
▁flores	-11.5992
▁treinamento	-11.5992
ásio	-11.5992
▁subterrâne	-11.5992
▁concedente	-11.5992
▁claro	-11.5992
▁110.000.	-11.5992
▁natalidade	-11.5992
▁detalha	-11.5993
▁implantar	-11.5993
▁notificante	-11.5993
▁arantes	-11.5993
▁taxa	-11.5993
▁chaveiro	-11.5993
▁1.662.	-11.5993
▁verificação	-11.5993
rauss	-11.5993
▁1.672.	-11.5993
▁reside	-11.5993
back	-11.5993
▁virtual	-11.5993
▁3.481	-11.5993
▁sindicante	-11.5993
▁37.843	-11.5994
▁0001-70,	-11.5994
▁concord	-11.5994
▁pesta	-11.5994
▁2018-25.	-11.5995
▁melhoria	-11.5995
brás	-11.5995
.000.3	-11.5995
▁gisel	-11.5996
▁meneses	-11.5996
▁disposta	-11.5996
▁memor	-11.5996
▁wall	-11.5997
▁atp	-11.5997
▁viária	-11.5997
3.765	-11.5997
▁leva	-11.5997
▁arro	-11.5997
▁visitação	-11.5997
▁aires	-11.5998
▁castanheira	-11.5999
▁nery	-11.5999
▁220.001.	-11.5999
▁00063	-11.5999
zuma	-11.6
▁00060-00561	-11.6001
▁187.5	-11.6001
▁vena	-11.6001
▁0,03	-11.6001
▁28.84	-11.6001
▁seletivo	-11.6001
▁monitores	-11.6001
ntoni	-11.6002
▁lucilen	-11.6002
shc	-11.6003
▁linear	-11.6003
▁francin	-11.6004
trato	-11.6004
▁236.9	-11.6004
▁00060.001	-11.6005
▁raz	-11.6005
4.101;	-11.6006
adequação	-11.6006
documental	-11.6006
▁2.469	-11.6006
▁1.441.	-11.6007
▁271.8	-11.6008
▁parcelamento	-11.6009
▁09:00	-11.6009
339	-11.601
.532	-11.601
▁economia	-11.601
ott	-11.6011
4091	-11.6012
▁igua	-11.6015
▁elaborar	-11.6015
.522	-11.6016
▁metropolitano	-11.6018
3.679,	-11.6018
▁homologa	-11.6018
▁0001-37	-11.602
▁karin	-11.6021
10.201	-11.6021
▁cimento	-11.6021
▁0001-46	-11.6021
deira	-11.6022
▁roni	-11.6022
▁espi	-11.6023
▁2018-78	-11.6024
▁0001-64	-11.6024
▁0001-03	-11.6024
▁orlando	-11.6025
▁solicitada	-11.6028
▁tcb	-11.6029
tudo	-11.6029
▁39.5	-11.6029
▁cruzeiro	-11.603
ius	-11.603
▁serv	-11.6032
▁reconduzi	-11.6034
1525	-11.6035
▁envelopes	-11.6035
▁nelson	-11.6037
135,	-11.6038
▁0001-08	-11.6038
068	-11.6044
▁início	-11.6045
assu	-11.6047
ligad	-11.6047
▁2019-99	-11.6052
▁viaturas	-11.6052
▁atualiza	-11.6055
▁giu	-11.606
certo	-11.6061
▁comando	-11.6062
▁proibida	-11.6064
▁informativo	-11.6069
mica	-11.6069
▁2018-42	-11.6071
▁analisado	-11.6078
▁importados	-11.608
▁2018-27	-11.6081
.254,	-11.6081
out	-11.6082
120	-11.6083
▁0001-34	-11.6083
▁branco	-11.6087
▁elie	-11.6094
▁1810208	-11.6095
▁diap	-11.6096
iris	-11.6097
▁1710109	-11.61
6.628	-11.6101
25.15	-11.6105
aqui	-11.6108
eus	-11.6108
▁2018-05	-11.6109
▁campo	-11.611
▁255,	-11.6112
-2;	-11.6113
▁cint	-11.6118
0084	-11.6123
xxxi	-11.6125
25-4	-11.6128
árias	-11.6134
529	-11.6135
ilio	-11.6136
▁gh	-11.6143
▁mono	-11.6144
.426	-11.6147
▁2019-81	-11.615
bene	-11.6152
7.4	-11.6153
133,	-11.6155
▁00060-00016	-11.6157
▁mante	-11.6158
▁deslig	-11.6158
pção	-11.6161
▁2019-84	-11.6161
.732	-11.6163
▁condut	-11.6164
zero	-11.6165
km	-11.6171
▁legislativos	-11.6173
▁laboratórios	-11.6173
▁33.6	-11.6175
▁"...3	-11.6175
▁174.73	-11.6175
69-5	-11.6177
054.000.0	-11.618
▁190.2	-11.6185
▁11.0	-11.6187
▁3.184	-11.6191
▁48-	-11.6205
▁placas	-11.6208
▁mencionadas	-11.6208
5944	-11.6208
-035	-11.6214
▁2018-35	-11.6219
42-4,	-11.6224
06.90	-11.6225
▁2019-19	-11.623
semi	-11.623
▁interpo	-11.6231
▁054.001.6	-11.6238
utora	-11.624
.508	-11.624
▁0001-80	-11.6242
5.000	-11.6251
085	-11.6252
▁conte	-11.6257
▁2007;	-11.6258
▁211	-11.6262
▁cir	-11.6264
▁2018-92	-11.6273
▁(3	-11.6274
▁alan	-11.6277
5-7,	-11.628
▁2.01	-11.6281
▁2012..."	-11.6281
▁1810207	-11.6287
945	-11.6293
met	-11.6297
▁215,	-11.6303
farmac	-11.6307
▁olímpicos	-11.6314
eg	-11.6314
1.39	-11.632
00428	-11.6321
▁combina	-11.6339
▁rj	-11.6342
gest	-11.6348
sertos	-11.6361
▁sr	-11.6365
▁sítios	-11.6367
orio	-11.6367
▁leg	-11.6376
equi	-11.6389
▁2018-72	-11.639
▁objetivos	-11.6403
70;	-11.6408
▁emba	-11.6424
▁divulgad	-11.6432
▁2018-82	-11.6436
▁210	-11.6447
▁2018-75	-11.6448
.952	-11.6452
del	-11.6462
.329	-11.6481
6-5	-11.6492
▁2018-03	-11.6521
▁análises	-11.6529
▁num	-11.6532
▁85.	-11.6532
lena	-11.6554
▁vers	-11.6554
278	-11.6575
xxxv	-11.6575
▁referidos	-11.6583
ivo	-11.6588
▁determin	-11.6591
▁set	-11.6603
lita	-11.661
37;	-11.6614
▁miran	-11.6622
5-8,	-11.6623
▁2018-30	-11.6634
ciências	-11.664
9,00	-11.6653
▁785	-11.6665
802	-11.667
▁ivan	-11.6671
▁martin	-11.6678
.351-	-11.6696
▁outorgad	-11.67
.501-	-11.6721
▁273.7	-11.6731
▁213.2	-11.6732
▁marcado	-11.6736
▁00060-00014	-11.6746
▁comprovada	-11.6766
0.30	-11.6775
686	-11.6788
141	-11.68
0004	-11.6803
▁importado	-11.6818
▁geo	-11.6821
7999	-11.6824
item	-11.6835
▁demonstrad	-11.6836
0-5,	-11.6842
▁0001-00	-11.6844
▁reservada	-11.6855
▁crist	-11.6869
▁2018-50	-11.6869
▁2019-00	-11.6877
samento	-11.6901
iran	-11.6915
utra	-11.6919
▁tay	-11.6928
-6;	-11.694
567	-11.697
tização	-11.699
▁recicla	-11.6994
1-20,	-11.7007
▁comprovar	-11.7036
▁5.7	-11.7052
965	-11.7067
206	-11.7068
▁161	-11.707
.927	-11.707
3-3,	-11.707
.991	-11.7089
▁2018-40	-11.7101
449	-11.7116
5.37	-11.7122
▁metal	-11.7132
2019	-11.7138
▁274.000.	-11.7144
9.17	-11.7173
315	-11.7185
194	-11.7207
851	-11.7208
00054-0007	-11.7243
993	-11.7296
▁aliment	-11.7304
▁esse	-11.7341
lmente	-11.7347
▁gabriell	-11.7381
nie	-11.7399
sandro	-11.74
7-0,	-11.7413
5-1,	-11.7421
éli	-11.7451
▁176.4	-11.7479
▁2018-48	-11.7486
ânia	-11.7495
.567	-11.7512
▁37.8	-11.7542
6-7	-11.7545
▁admitid	-11.7561
957	-11.7569
▁consumidor	-11.7577
osto	-11.7585
-13,	-11.7586
ferir	-11.7595
▁retorn	-11.7599
cido	-11.76
▁ordena	-11.7615
up	-11.7617
▁1997	-11.7625
▁hand	-11.7662
.10.200	-11.7671
924	-11.7677
▁00150-00010	-11.7683
teria	-11.77
▁incumb	-11.7704
5-4,	-11.7705
00434	-11.7734
.338	-11.7743
▁condicionado	-11.7746
rillo	-11.776
938	-11.7765
▁dispens	-11.7792
▁envolve	-11.7797
017	-11.7811
emater	-11.7812
ck	-11.7819
imóveis	-11.7822
lf	-11.7822
xiv	-11.7828
vivian	-11.7841
▁anes	-11.7844
regulares	-11.7848
80.0001	-11.7857
▁266	-11.7861
▁171010	-11.7862
+	-11.787
▁1.440	-11.7878
▁arrecada	-11.7879
ã	-11.7883
sigiloso	-11.7884
▁consider	-11.7888
▁00060-0049	-11.7889
eitor	-11.789
▁diagnóstico	-11.7899
▁bomba	-11.7901
▁esportivo	-11.7901
▁exigência	-11.7904
▁fracassado	-11.7904
▁pensionista	-11.7905
▁clara	-11.7906
zação	-11.7912
▁santo	-11.7916
considera	-11.7918
▁relacionada	-11.7918
adjunta	-11.7919
1990	-11.7921
concurso	-11.7925
visa	-11.7927
7.993	-11.7928
classe	-11.7932
representante	-11.7933
▁isen	-11.7934
oficial	-11.7934
▁elabora	-11.7936
▁38.9	-11.7936
paulo	-11.7937
função	-11.7938
▁municipa	-11.794
chefe	-11.794
apoio	-11.7941
.584	-11.7947
grup	-11.7954
▁completa	-11.7955
administrativo	-11.7957
oitocentos	-11.7957
tivas	-11.7959
diretor	-11.796
▁226.	-11.7964
ltda	-11.7968
corp	-11.797
▁consequente	-11.7974
.024	-11.7975
▁276.001	-11.7976
escolar	-11.7976
696	-11.7979
-0012	-11.798
▁234.50	-11.7981
▁convalida	-11.7982
tários	-11.7982
rence	-11.7983
▁13.392.6219.	-11.7984
mática	-11.7984
▁052-00	-11.7985
dição	-11.7985
▁dent	-11.7988
▁regist	-11.7988
▁713	-11.7988
▁responsabili	-11.799
nstruções	-11.799
escrito	-11.799
▁forneci	-11.799
emberg	-11.7991
▁biblio	-11.7992
**	-11.7992
▁conect	-11.7992
▁frederic	-11.7992
manhã	-11.7992
▁eletronica	-11.7992
.8517.00	-11.7992
▁caminhões	-11.7992
▁christin	-11.7992
▁digestiv	-11.7992
cptce	-11.7992
fosfato	-11.7992
imprensa	-11.7992
intercâmbio	-11.7992
mestrado	-11.7992
nerários	-11.7992
obrigatoriamente	-11.7992
ppgg	-11.7992
vinculada	-11.7992
▁154.188-9,	-11.7992
▁178.828-0	-11.7992
▁36.137-2	-11.7992
▁advertência	-11.7992
▁aeroporto	-11.7992
▁afonso	-11.7992
▁aguarda	-11.7992
▁agulha	-11.7992
▁apresente	-11.7992
▁aprimoramento	-11.7992
▁atletas	-11.7992
▁bernardes	-11.7992
▁bittar	-11.7992
▁bobroff	-11.7992
▁cheques	-11.7992
▁christian	-11.7992
▁clube	-11.7992
▁coimbra	-11.7992
▁colaborar	-11.7992
▁comissionada	-11.7992
▁compartiment	-11.7992
▁conduzido	-11.7992
▁construíd	-11.7992
▁cooperdife	-11.7992
▁coopere	-11.7992
▁cotovelo	-11.7992
▁deputado	-11.7992
▁eleitoral	-11.7992
▁faustino	-11.7992
▁funcionários	-11.7992
▁george	-11.7992
▁geriatria	-11.7992
▁incidente	-11.7992
▁intensiva	-11.7992
▁jayme	-11.7992
▁laborativa	-11.7992
▁lisboa	-11.7992
▁locktec	-11.7992
▁loiola	-11.7992
▁língua	-11.7992
▁modernização	-11.7992
▁navarro	-11.7992
▁nenhum	-11.7992
▁ocorrid	-11.7992
▁olimpi	-11.7992
▁panacopy	-11.7992
▁pinho	-11.7992
▁plataforma	-11.7992
▁pollyan	-11.7992
▁processual	-11.7992
▁progressão	-11.7992
▁psicologia	-11.7992
▁quantifica	-11.7992
▁readaptar	-11.7992
▁referencia	-11.7992
▁reforç	-11.7992
▁religação	-11.7992
▁representação	-11.7992
▁revestimento	-11.7992
▁rodovias	-11.7992
▁salles	-11.7992
▁silicone	-11.7992
▁subtítulo	-11.7992
▁sugep	-11.7992
▁teodoro	-11.7992
▁trâmite	-11.7992
▁utilizando	-11.7992
▁veracidade	-11.7992
▁viabiliz	-11.7992
▁virgílio	-11.7992
▁índice	-11.7992
crimes	-11.7992
▁310.003	-11.7992
▁3314-2	-11.7992
▁390.000.5	-11.7992
▁438.0153	-11.7992
▁bispo	-11.7992
▁conclui	-11.7992
▁editora	-11.7992
▁esteril	-11.7992
▁graziel	-11.7992
▁inteligência	-11.7992
▁renova	-11.7992
▁reprográfic	-11.7992
▁vilela	-11.7992
▁aceite	-11.7992
▁beneficiária	-11.7992
▁consecu	-11.7992
▁enseja	-11.7992
reclama	-11.7992
▁29.290	-11.7992
plast	-11.7992
▁339037.	-11.7992
▁aceito	-11.7992
▁barbar	-11.7992
▁fontenele	-11.7992
▁sensu	-11.7992
protetor	-11.7992
▁formula	-11.7992
▁banner	-11.7992
▁00220-	-11.7992
▁integrado	-11.7992
▁brinde	-11.7992
▁venha	-11.7992
▁messias	-11.7992
▁valmir	-11.7992
▁inteiros	-11.7992
▁170393	-11.7992
216.85	-11.7992
▁misto	-11.7992
▁procedente	-11.7992
▁similar	-11.7992
▁gaze	-11.7992
▁nathali	-11.7992
▁couto	-11.7992
▁eletro	-11.7992
▁mental	-11.7992
▁higiene	-11.7992
▁instauração	-11.7992
▁24.204	-11.7992
▁ferro	-11.7992
▁anilc	-11.7992
▁seixas	-11.7992
-01-201	-11.7992
▁geovan	-11.7992
▁dourado	-11.7992
▁karen	-11.7992
▁requere	-11.7993
▁mattos	-11.7993
▁tubo	-11.7993
▁interposição	-11.7993
▁depósito	-11.7993
▁alimentação	-11.7993
▁participantes	-11.7993
▁197106	-11.7993
yama	-11.7993
▁brandão	-11.7993
▁4.320,	-11.7993
▁anatomia	-11.7993
▁recebi	-11.7993
cila	-11.7993
▁taka	-11.7993
▁país	-11.7993
▁0001-02.	-11.7993
▁teor	-11.7993
.12.2013	-11.7994
sulfa	-11.7994
▁tiver	-11.7994
.920,00	-11.7994
▁concedida	-11.7994
▁sangu	-11.7994
▁1.004	-11.7994
▁ludm	-11.7994
▁gilvan	-11.7994
sfc	-11.7994
▁ramalho	-11.7994
versa	-11.7995
▁erário	-11.7995
▁jess	-11.7995
▁iniciativa	-11.7995
utela	-11.7995
▁fogo	-11.7995
▁xviii	-11.7995
processamento	-11.7995
▁segmento	-11.7995
▁1.687.	-11.7995
▁97400	-11.7995
▁56.99	-11.7996
▁080.01	-11.7996
▁causa	-11.7996
▁28.69	-11.7996
▁raul	-11.7996
▁thays	-11.7996
▁pagar	-11.7996
▁loui	-11.7997
▁mú	-11.7997
itinib	-11.7997
▁00060-000173	-11.7997
▁suplementação	-11.7997
▁comercialização	-11.7997
▁fabrica	-11.7997
aulo	-11.7997
▁regularidade	-11.7997
▁finais	-11.7998
iìci	-11.7998
▁esteja	-11.7998
▁217.9	-11.7999
▁box	-11.7999
carre	-11.7999
eador	-11.8
enação	-11.8
16843	-11.8
▁7.713	-11.8
▁abb	-11.8
▁136.5	-11.8001
▁diretamente	-11.8001
▁rosil	-11.8001
▁00393	-11.8001
▁19715	-11.8001
sindi	-11.8002
▁romildo	-11.8002
▁175.6	-11.8002
▁tech	-11.8003
▁178.000,00	-11.8003
▁00060-00565	-11.8003
▁riba	-11.8003
▁3403-2322	-11.8003
.760,00	-11.8003
valle	-11.8004
▁138.000.	-11.8004
.590,	-11.8006
cchi	-11.8006
▁01.122.600	-11.8006
▁331	-11.8007
▁273.71	-11.8007
▁dayan	-11.8007
inete	-11.8007
▁273.74	-11.8008
traque	-11.8009
▁174.63	-11.801
▁273.72	-11.8012
▁definida	-11.8012
▁ku	-11.8012
▁metais	-11.8013
.931	-11.8013
.416.	-11.8013
eliz	-11.8014
▁nobre	-11.8014
▁acusatória	-11.8014
▁xvi	-11.8015
▁heloi	-11.8015
▁result	-11.8015
▁224.0	-11.8016
úli	-11.8017
▁00060-0023	-11.8018
▁preenchido	-11.8018
tê	-11.8018
▁leidian	-11.8019
▁fita	-11.8019
upop	-11.8021
▁00110	-11.8021
rute	-11.8022
▁guia	-11.8023
ésim	-11.8024
▁elétricos	-11.8024
▁cientifica	-11.8025
▁inva	-11.8025
▁2019-21	-11.8025
▁internação	-11.8025
.305	-11.8026
1691	-11.8026
▁2017-21	-11.8027
▁autônomo	-11.8027
▁escritura	-11.8027
▁150.001.	-11.8028
▁automotor	-11.8028
aveiro	-11.8029
09.335	-11.8029
▁completado	-11.8029
▁34.02	-11.803
.804	-11.8031
▁alto	-11.8032
elle	-11.8033
▁salata	-11.8033
▁manejo	-11.8033
▁00054-000	-11.8033
▁2017-31	-11.8034
iguaç	-11.8035
▁83.3	-11.8036
.10.2013	-11.8037
▁58.4	-11.8037
▁130.000,00	-11.8037
▁2018-01,	-11.8038
▁fina	-11.8038
▁2019-28	-11.8039
▁0001-26	-11.804
▁hrt	-11.804
inter	-11.8044
▁extint	-11.8044
service	-11.8044
01950	-11.8045
tq	-11.8046
tare	-11.8048
vite	-11.8049
▁ray	-11.805
▁4.2	-11.8051
▁servi	-11.8054
9-6,	-11.8056
▁anat	-11.8056
▁jairo	-11.806
gate	-11.8061
▁lado	-11.8061
▁realiz	-11.8062
▁bd	-11.8063
▁contato	-11.8064
214,	-11.8065
▁princípios	-11.8067
▁225.4	-11.8067
umento	-11.8069
▁0005-	-11.8072
3588	-11.8073
▁mapa	-11.8073
uzzi	-11.8074
1677	-11.8074
diada	-11.8075
▁2019-63	-11.8076
▁34.6	-11.8079
▁há	-11.8081
▁preench	-11.8081
▁2017-19	-11.8082
▁seap	-11.8082
▁aprovada	-11.8083
▁home	-11.8087
▁gale	-11.8088
▁assumid	-11.8088
▁2018-46	-11.8089
▁2018-67	-11.8089
▁formato	-11.8089
▁464	-11.809
.03.19	-11.8093
▁empregador	-11.8094
▁0001-30	-11.8095
▁vem	-11.8095
▁2018-65	-11.8098
00024	-11.81
▁shl	-11.8102
▁2018-57	-11.8103
atro	-11.8104
▁lp	-11.8105
▁1964	-11.8111
▁pá	-11.8111
▁sib	-11.8116
▁pessoalmente	-11.8118
▁0050	-11.8121
▁778	-11.8121
▁2019-22	-11.8127
▁021	-11.8128
▁hide	-11.813
▁7.2	-11.8134
pedes	-11.8139
▁movimenta	-11.814
▁glauci	-11.8142
▁aplic	-11.8143
▁comutado	-11.8145
▁513	-11.8147
ndi	-11.815
▁0001-49	-11.8151
uza	-11.816
▁eixo	-11.8161
▁adi	-11.8164
▁srs	-11.8167
▁planilhas	-11.8174
▁161020	-11.8176
▁173.1	-11.8177
373	-11.8181
mbro	-11.8184
▁jov	-11.8184
▁relator	-11.8196
▁registrad	-11.8198
▁163,	-11.8206
626	-11.8217
1-87,	-11.822
3.11	-11.8221
▁habit	-11.8223
▁incumbida	-11.8225
▁146.8	-11.8226
64-	-11.8227
▁normatiza	-11.823
▁prote	-11.8234
ientes	-11.8237
▁bos	-11.824
▁1979	-11.8242
▁1991;	-11.8247
▁81.2	-11.8247
▁continua	-11.8248
▁incorpora	-11.8249
▁2019-80	-11.8249
▁2019-51	-11.8252
.819-	-11.8252
.200,00	-11.8255
condicionados	-11.8255
▁"11	-11.8256
polis	-11.8259
brasilia	-11.8261
wald	-11.8281
▁00060-0024	-11.8292
▁2018-59	-11.8301
▁82.8	-11.8304
.800,00	-11.8306
▁apro	-11.8311
0.002	-11.8321
eiras	-11.8325
▁espaços	-11.8327
▁efetivada	-11.8333
▁mm	-11.8334
ely	-11.8337
902	-11.8342
.276	-11.8351
illy	-11.8354
▁437	-11.8354
shi	-11.8365
▁00.08	-11.8369
914	-11.8374
▁auditora	-11.8377
▁0001-41	-11.8378
▁1673	-11.8382
▁apol	-11.8394
▁disp	-11.8408
▁sag	-11.8422
▁responder	-11.843
▁092.004	-11.8437
uth	-11.8437
▁434	-11.8438
▁admitido	-11.8443
▁00060-0003	-11.8458
ili	-11.8469
▁00060-0048	-11.8477
572	-11.8491
lente	-11.8511
7.431	-11.8515
▁cen	-11.8516
792,	-11.8523
33;	-11.8524
▁1980	-11.8539
iz	-11.8565
▁103,	-11.857
.146	-11.8579
iv	-11.8586
▁504	-11.859
▁find	-11.8598
▁arac	-11.8603
▁00060-0043	-11.8604
▁aure	-11.8614
▁926	-11.8621
microcomputador	-11.8621
26-8,	-11.8636
4.61	-11.8653
.970	-11.8664
301,	-11.8669
▁conven	-11.8687
▁possuidor	-11.8697
2.79	-11.8726
uteri	-11.8751
ixo	-11.8764
▁silvi	-11.8765
miro	-11.8774
cri	-11.8793
692	-11.8794
▁suc	-11.8803
ego	-11.8817
▁2017-41	-11.8819
274	-11.8828
▁00060-00576	-11.8829
.285	-11.884
usi	-11.8852
1333	-11.8862
577	-11.8886
▁2018-06	-11.8888
mini	-11.8891
637	-11.8898
▁00050-00059	-11.8923
▁situa	-11.8939
674	-11.8939
medic	-11.894
823,	-11.8942
00021	-11.8942
643	-11.8944
▁16617	-11.8949
48-8	-11.8951
▁passage	-11.8954
▁00060-0034	-11.8955
▁030	-11.8958
nb	-11.8964
▁00150-0001065	-11.8967
▁mara	-11.8972
▁bon	-11.8973
nização	-11.8978
-01.	-11.8991
▁implementado	-11.9016
▁ediva	-11.9023
▁presidi	-11.9026
4.000,00	-11.9045
tua	-11.9048
65-2,	-11.905
▁2018-83	-11.9051
.788	-11.9056
▁hal	-11.9058
565	-11.9072
will	-11.9081
romed	-11.9086
.562	-11.9087
▁35.5	-11.9088
▁0033	-11.9118
▁358	-11.9131
iane	-11.9133
453	-11.9139
▁3.4	-11.9158
0.75	-11.9193
lete	-11.9194
isma	-11.92
▁brit	-11.9217
238,	-11.9217
edil	-11.9223
mir	-11.9249
7.667	-11.9283
222,	-11.9284
.476	-11.929
▁demonstra	-11.9298
000113	-11.9303
siva	-11.9307
valeria	-11.9323
467	-11.9332
▁0034	-11.9372
.343	-11.9385
.718	-11.9391
050	-11.9393
▁custe	-11.9398
615	-11.9398
fet	-11.9401
uy	-11.9406
form	-11.9416
▁moda	-11.9433
tum	-11.9462
aren	-11.9463
tará	-11.9481
142,	-11.9498
▁gráfico	-11.9529
▁opta	-11.9534
arq	-11.9535
286	-11.9538
26.3	-11.9544
▁600	-11.955
gin	-11.9564
▁reduzi	-11.9571
▁0132	-11.9596
115,	-11.9597
▁devido	-11.9623
▁0136	-11.9624
icina	-11.9627
▁2003)	-11.9629
▁00060-0047	-11.9638
▁exp	-11.9652
▁cat	-11.9675
000112	-11.968
▁marlo	-11.9702
tru	-11.9714
▁1229	-11.972
▁combinad	-11.9734
computadores	-11.9738
ohan	-11.9754
▁265	-11.9757
atas	-11.9775
assin	-11.9777
gam	-11.9796
939	-11.9797
.561	-11.9806
▁00055-001	-11.9811
844	-11.9835
redo	-11.9837
▁solicita	-11.984
▁1.52	-11.9865
llen	-11.9876
randa	-11.9891
▁00060-00012	-11.9893
▁181020	-11.9898
cina	-11.9909
ramon	-11.9925
andes	-11.9927
00.000	-11.9929
▁21.20	-11.9977
▁00060-00454	-11.9983
▁00050-00058	-12.0022
▁00060-003	-12.0026
▁utilizad	-12.0034
abor	-12.0066
risto	-12.0076
tâni	-12.0096
1283	-12.0116
▁1686	-12.0123
▁vot	-12.0125
2.1	-12.0131
nú	-12.0134
▁hér	-12.0143
agas	-12.0159
▁natur	-12.0167
demir	-12.0186
ticia	-12.0188
▁destin	-12.0227
ciados	-12.0235
zine	-12.0239
▁vara	-12.0255
▁liqu	-12.0258
▁0001-8	-12.028
▁00060-00584	-12.0281
▁deix	-12.0296
▁conselheir	-12.0308
.663-	-12.0311
▁lucie	-12.0323
▁hel	-12.0332
▁exerce	-12.034
▁encontr	-12.0345
▁gali	-12.0348
▁analisa	-12.0359
8-4	-12.0361
ulos	-12.037
▁informativ	-12.0373
ngel	-12.0374
▁escrivã	-12.0379
▁enfermeir	-12.038
rinald	-12.0385
2.881	-12.0391
▁princípio	-12.0397
.081	-12.0399
anda	-12.0399
▁débito	-12.0401
▁investimento	-12.0402
▁humano	-12.0404
▁mínima	-12.0404
▁torre	-12.0404
portador	-12.0405
▁viatura	-12.0405
▁rodrigue	-12.0406
▁ponte	-12.0407
sisti	-12.0407
.890	-12.0415
conv	-12.0419
▁sof	-12.042
tinto	-12.0426
▁substitui	-12.0428
nciamento	-12.0434
▁roda	-12.0435
gd	-12.0443
▁1.661.6	-12.0447
zal	-12.0449
6.250,	-12.0452
▁00080.001	-12.0452
.728	-12.0461
▁procura	-12.0462
iciclos	-12.0463
▁400.000	-12.0465
protocol	-12.0466
▁junio	-12.0467
luído	-12.0471
.186	-12.0471
▁convocado	-12.0471
esportiva	-12.0471
▁policia	-12.0472
743-9,	-12.0475
▁comparec	-12.0475
▁061.04	-12.0475
.671	-12.0476
▁3403-232	-12.0477
▁territoria	-12.0477
▁operaciona	-12.0479
▁acresc	-12.0481
▁arremata	-12.0482
▁promo	-12.0483
▁visita	-12.0483
▁organiza	-12.0484
▁telefônic	-12.0484
▁21.01.	-12.0485
▁compreende	-12.0486
▁consultor	-12.0488
▁33.2	-12.049
conheço	-12.049
▁0006-	-12.049
▁xxii	-12.049
ásico	-12.049
.122.6002.8517.	-12.049
dicado	-12.049
olanda	-12.0491
▁utili	-12.0491
▁pertence	-12.0491
▁combate	-12.0491
▁infant	-12.0491
▁gonza	-12.0491
▁arquitet	-12.0492
▁computa	-12.0492
▁urbaniza	-12.0492
▁déb	-12.0492
▁estrit	-12.0492
▁anteced	-12.0492
▁0**.7*8.	-12.0492
▁273.517-2	-12.0492
▁gratuita	-12.0492
certidao	-12.0492
▁(132189	-12.0492
▁00060-001095	-12.0492
▁específico	-12.0492
▁gaoaps	-12.0492
▁intermediada	-12.0492
▁oftalm	-12.0492
.06.1986	-12.0492
.06.1987	-12.0492
.12.2003,	-12.0492
.2017.8.07.001	-12.0492
.898.5	-12.0492
0,1900)	-12.0492
1030262024205000	-12.0492
2.6210.	-12.0492
admitir	-12.0492
fepecs	-12.0492
invólucro	-12.0492
legrini	-12.0492
prefeitura	-12.0492
químico	-12.0492
renumera	-12.0492
rescind	-12.0492
stricto	-12.0492
▁00050-000395	-12.0492
▁174.587-5	-12.0492
▁264.213-1	-12.0492
▁34.036-7	-12.0492
▁6.060	-12.0492
▁70.075-	-12.0492
▁acompanhada	-12.0492
▁advocacia	-12.0492
▁agefis	-12.0492
▁arapoanga	-12.0492
▁articulação	-12.0492
▁asfalto	-12.0492
▁aspectos	-12.0492
▁autorizatário	-12.0492
▁aéreas	-12.0492
▁barcellos	-12.0492
▁cambraia	-12.0492
▁cessionária	-12.0492
▁circunstanciad	-12.0492
▁cobertura	-12.0492
▁cobrança	-12.0492
▁colegiados	-12.0492
▁coletivo	-12.0492
▁concomitante	-12.0492
▁condomínio	-12.0492
▁conferência	-12.0492
▁contingencia	-12.0492
▁contí	-12.0492
▁diretrizes	-12.0492
▁eptg	-12.0492
▁estimativa	-12.0492
▁estipulado	-12.0492
▁eugeni	-12.0492
▁existente	-12.0492
▁facultad	-12.0492
▁faixa	-12.0492
▁farmacêutico	-12.0492
▁favorecido	-12.0492
▁fluossil	-12.0492
▁fornecer	-12.0492
▁frontal	-12.0492
▁físico	-12.0492
▁fórmula	-12.0492
▁gaspar	-12.0492
▁gastos	-12.0492
▁goiás	-12.0492
▁gontijo	-12.0492
▁heleodoro	-12.0492
▁hábil	-12.0492
▁ilícit	-12.0492
▁independente	-12.0492
▁inservíveis	-12.0492
▁jardin	-12.0492
▁john	-12.0492
▁laríngea	-12.0492
▁locomoção	-12.0492
▁lourenco	-12.0492
▁lourenço	-12.0492
▁macena	-12.0492
▁mascarenhas	-12.0492
▁mecânic	-12.0492
▁mineral	-12.0492
▁muniz	-12.0492
▁múltipl	-12.0492
▁numerado	-12.0492
▁obstáculos	-12.0492
▁ortopédic	-12.0492
▁paisagismo	-12.0492
▁partícipes	-12.0492
▁patologia	-12.0492
▁pediátrica	-12.0492
▁pondera	-12.0492
▁preceitua	-12.0492
▁prediais	-12.0492
▁pretendido	-12.0492
▁provisóri	-12.0492
▁psicológic	-12.0492
▁reconhece	-12.0492
▁reexame	-12.0492
▁repetição	-12.0492
▁rodoferroviária	-12.0492
▁smdb	-12.0492
▁socorro	-12.0492
▁strieder	-12.0492
▁tesour	-12.0492
▁tríplice	-12.0492
▁tubula	-12.0492
▁ubira	-12.0492
▁urbanísticas	-12.0492
▁vasconcellos	-12.0492
▁vertical	-12.0492
▁vitalícia	-12.0492
▁zaratz	-12.0492
13.019	-12.0492
6.131.6216.8505.	-12.0492
chamada	-12.0492
▁1710210	-12.0492
▁duplo	-12.0492
▁escrita	-12.0492
▁félix	-12.0492
▁interface	-12.0492
▁manipula	-12.0492
▁metálic	-12.0492
▁nicola	-12.0492
▁pleite	-12.0492
▁rêgo	-12.0492
,3,4,5,6,7,8,9,1	-12.0492
▁criminal	-12.0492
▁ezequi	-12.0492
▁ginásio	-12.0492
▁indireta	-12.0492
▁lívi	-12.0492
▁ressalva	-12.0492
▁villar	-12.0492
4.555	-12.0492
▁couber	-12.0492
43.735	-12.0492
▁226.764-	-12.0492
▁59.230-	-12.0492
▁cavalheiro	-12.0492
▁jonas	-12.0492
▁pleito	-12.0492
▁radiologi	-12.0492
▁tinta	-12.0492
.10.19	-12.0492
miami	-12.0492
▁rebou	-12.0492
▁busca	-12.0492
8.824,	-12.0492
▁175.83	-12.0492
▁paranhos	-12.0492
.734.6	-12.0492
851700	-12.0492
▁montagem	-12.0492
▁abrantes	-12.0492
▁147.000.0	-12.0492
▁sqn	-12.0492
▁trilhos	-12.0492
▁eletrônica	-12.0492
0.830-	-12.0492
▁ismael	-12.0492
▁fechad	-12.0492
▁imuno	-12.0492
scarte	-12.0492
▁eletricista	-12.0492
filtro	-12.0492
▁1434279	-12.0492
▁garagem	-12.0492
▁00060.003	-12.0492
▁93.872	-12.0492
▁priori	-12.0492
▁mall	-12.0492
▁nazare	-12.0492
▁shsn	-12.0492
volva	-12.0492
▁elencad	-12.0492
6.247,	-12.0492
▁comunidade	-12.0492
▁bolet	-12.0492
▁eleição	-12.0492
▁preceptor	-12.0492
▁luner	-12.0492
▁138003467	-12.0492
▁série	-12.0492
digeo	-12.0492
rixá	-12.0492
▁áudio	-12.0492
mond	-12.0492
▁puls	-12.0492
olemberg	-12.0492
▁escolha	-12.0492
▁00052-0002	-12.0492
▁1.430.8	-12.0492
▁276.001.8	-12.0492
▁firm	-12.0493
▁bertucci	-12.0493
operador	-12.0493
▁denúncia	-12.0493
▁geradores	-12.0493
192.8	-12.0493
▁mcr	-12.0493
tinas	-12.0493
▁distribui	-12.0493
▁funcionais	-12.0493
▁segad	-12.0493
**1-	-12.0493
▁encarrega	-12.0493
.600,00	-12.0493
▁sessões	-12.0493
siologia	-12.0493
▁visto	-12.0493
12.62	-12.0493
ndário	-12.0493
▁197101	-12.0493
.554,	-12.0493
▁2019-15.	-12.0493
▁valim	-12.0493
▁2019-08.	-12.0493
▁circunst	-12.0493
▁cleber	-12.0493
▁agnel	-12.0493
▁197103	-12.0494
omissões	-12.0494
▁holanda	-12.0494
petro	-12.0494
▁daten	-12.0494
▁rasura	-12.0494
▁00401-0001	-12.0494
líb	-12.0494
▁055-03	-12.0494
▁2018-86.	-12.0494
▁guara	-12.0494
▁documentais	-12.0495
▁executadas	-12.0495
▁acervo	-12.0495
▁1.864	-12.0495
7.869	-12.0495
▁medido	-12.0495
▁maya	-12.0495
▁alud	-12.0495
▁2018-45.	-12.0495
▁irre	-12.0495
ímetro	-12.0495
oysia	-12.0495
▁2018-28.	-12.0495
stosa	-12.0495
utic	-12.0495
▁0003-93	-12.0495
▁0001-19,	-12.0495
citadas	-12.0495
▁cebprev	-12.0496
▁15.45	-12.0496
distribuídos	-12.0496
▁carrar	-12.0496
▁2018-85,	-12.0496
.06.201	-12.0496
▁reposição	-12.0496
way	-12.0497
▁colar	-12.0497
-14..."	-12.0497
▁oitav	-12.0497
▁00050-00040	-12.0497
6.259	-12.0497
▁farmace	-12.0497
▁kami	-12.0498
▁valente	-12.0498
▁11:30	-12.0498
▁ivone	-12.0498
01.107	-12.0498
▁compatível	-12.0498
▁unitário	-12.0499
▁flex	-12.0499
▁usina	-12.0499
deriva	-12.0499
▁2019-55.	-12.0499
park	-12.0499
▁perito	-12.0499
▁242.40	-12.05
▁dizer	-12.05
▁preenchida	-12.05
▁15.12	-12.05
▁telefônicos	-12.05
▁26.785-6	-12.05
▁lance	-12.05
▁csdf	-12.05
▁carto	-12.0501
logar	-12.0501
.646.	-12.0501
lucy	-12.0501
▁00060-00568	-12.0501
392.48	-12.0501
▁00018	-12.0502
▁00.53	-12.0502
▁00361	-12.0502
dirpo	-12.0502
▁rainha	-12.0502
▁geap	-12.0502
▁reumatologia	-12.0503
telecom	-12.0503
interfer	-12.0504
▁jk	-12.0504
▁acrescido	-12.0504
▁inex	-12.0504
533,	-12.0504
▁condutores	-12.0505
▁pist	-12.0505
xxiii	-12.0506
.02.1982	-12.0506
▁leao	-12.0506
▁jeander	-12.0506
ética	-12.0506
▁territorial	-12.0506
▁bcg	-12.0507
▁0001-22,	-12.0507
▁sba	-12.0507
▁líquidos	-12.0508
95-9,	-12.0508
.114,	-12.0508
▁substituído	-12.0509
▁237.4	-12.0509
83-8,	-12.051
ésti	-12.0511
▁produtivo	-12.0512
▁0,40	-12.0512
▁tecido	-12.0512
▁incluíd	-12.0513
▁fixos	-12.0513
97-5,	-12.0514
imação	-12.0514
08-5,	-12.0515
consequentemente	-12.0515
unice	-12.0515
ciano	-12.0516
grade	-12.0516
▁0004-	-12.0516
▁cale	-12.0517
-032,	-12.0518
3.649-	-12.0518
▁anota	-12.0518
.10.2004	-12.0518
minal	-12.052
1.452	-12.0521
81.61	-12.0521
riciclos	-12.0521
▁5.4	-12.0521
▁00142	-12.0521
▁0,30	-12.0522
060-0	-12.0523
▁destina	-12.0524
▁0002-6	-12.0525
.560,00	-12.0525
▁especialização	-12.0525
rogênio	-12.0527
▁172.4	-12.0528
▁0001-61	-12.0528
▁39.613	-12.0529
▁2019-61	-12.0529
▁00060-0032	-12.0529
zina	-12.0529
9076	-12.053
470.000	-12.053
▁enviar	-12.0531
16.7	-12.0533
▁reajust	-12.0533
▁16606	-12.0534
▁produtor	-12.0534
▁premi	-12.0534
▁alíquotas	-12.0535
▁reparos	-12.0535
▁agregação	-12.0536
▁7063	-12.0536
uario	-12.0536
▁class	-12.0537
▁12.11.2018	-12.0538
▁leão	-12.054
▁win	-12.054
▁credor	-12.0542
▁"...1.3	-12.0544
▁polian	-12.0544
▁0001-45	-12.0546
▁cirurgião	-12.0546
lez	-12.0547
.001.17	-12.0549
▁2019-83	-12.055
chá	-12.055
▁2019-91	-12.0551
▁2018-78;	-12.0552
empenhado	-12.0555
▁penal	-12.0556
▁logo	-12.0556
passe	-12.0557
▁2019-47	-12.0557
▁2019-26	-12.0558
▁coordenadoria	-12.0558
dagem	-12.056
▁transport	-12.056
▁terra	-12.0562
77-4,	-12.0563
▁entregues	-12.0563
▁cabos	-12.0563
bom	-12.0564
amy	-12.0564
92-4,	-12.0564
estruturais	-12.0567
27-7	-12.0567
braun	-12.0568
.980	-12.0569
444,	-12.0569
▁178.3	-12.0569
▁115.4	-12.057
▁125.9	-12.057
▁nego	-12.0571
9.08	-12.0573
▁2019-29	-12.0574
▁9.50	-12.0575
▁corresponden	-12.0577
ashi	-12.0578
minas	-12.0579
turi	-12.0579
▁57.4	-12.0584
▁arthu	-12.0584
▁2018-21;	-12.0585
mcg	-12.0586
▁irm	-12.0588
▁executado	-12.0589
▁novais	-12.0593
fine	-12.0595
.985,	-12.0595
▁2018-33	-12.0595
▁2018-61;	-12.0596
▁2018-09;	-12.0596
5.899,	-12.0596
8.07	-12.0599
▁94.1	-12.0604
quiri	-12.0604
42,43	-12.0607
▁vidal	-12.0607
tável	-12.0607
.431	-12.0607
▁2019-59	-12.0609
▁identificada	-12.061
▁cepi	-12.0613
▁2018-77	-12.0614
0.051	-12.0616
▁sujeito	-12.0617
46.21	-12.0622
▁estev	-12.0623
▁273.67	-12.0623
▁heb	-12.0627
▁mascar	-12.0628
▁2018-64	-12.0634
▁0001-39	-12.0635
▁inser	-12.0638
▁0001-31	-12.0639
830,	-12.0644
▁teres	-12.0646
▁244,	-12.0647
▁bot	-12.0654
pq	-12.0655
▁2018-60	-12.0657
▁upa	-12.0659
000148	-12.0664
linn	-12.067
▁arco	-12.067
culos	-12.0673
▁002.000.	-12.0673
isio	-12.0679
▁2019-13	-12.0679
98-3,	-12.0683
▁263.9	-12.0685
elizet	-12.0686
.000.000,00	-12.0688
▁1.350,	-12.069
▁00060-0036	-12.0705
0585	-12.0716
terminal	-12.0726
▁pel	-12.0727
349	-12.073
▁2018-39	-12.0732
▁liquid	-12.0733
▁advogado	-12.0733
▁0001-73	-12.0738
4.212-	-12.0745
-85;	-12.0753
797	-12.0757
dito	-12.076
.774	-12.0763
▁1735	-12.0768
▁2017-81	-12.0768
▁tob	-12.077
▁1990..."	-12.0772
▁luc	-12.0779
▁0001-89	-12.0782
▁00093	-12.0788
▁wilma	-12.0793
2702	-12.0797
▁merce	-12.0801
▁irregular	-12.0804
1123	-12.0826
ubia	-12.0831
▁1.673.	-12.0836
.573-	-12.0843
▁ferra	-12.0844
▁lacr	-12.0853
▁1661.4	-12.0861
61-2	-12.087
64-4,	-12.0872
▁0480-00016	-12.0876
3,76	-12.0882
nna	-12.0885
▁18.5	-12.0886
▁092.00652	-12.0896
9640	-12.0897
79-5,	-12.0899
▁carin	-12.0902
▁determinado	-12.0903
▁inicia	-12.0905
81-1	-12.0907
.505	-12.093
nega	-12.0932
.413	-12.0938
132,	-12.0945
▁18.2	-12.0946
▁2018-36	-12.0953
magno	-12.096
▁00060-00019	-12.0967
7.000,00	-12.097
7.69	-12.1
83-0,	-12.1003
hub	-12.1005
-54.	-12.1019
3.25	-12.1032
▁2018-97	-12.1034
▁3213-737	-12.1039
7.607-	-12.1044
▁146.7	-12.1044
vie	-12.1058
4000-	-12.106
▁claudin	-12.1066
▁0001-83	-12.1071
▁spr	-12.1089
2043	-12.1092
▁notici	-12.1112
▁kle	-12.1115
▁guarde	-12.1121
▁wander	-12.1122
instituição	-12.114
ampola	-12.1154
3,00	-12.1158
135-	-12.1165
obriga	-12.117
restrito	-12.1183
lucia	-12.1196
construção	-12.1197
soldado	-12.1202
outorgado	-12.1205
exclusivo	-12.1207
republicado	-12.1207
▁197134	-12.1208
faz	-12.1213
▁0001-15	-12.1222
▁benz	-12.1225
▁00060-00575	-12.1228
7372	-12.1229
2983	-12.1232
estrutura	-12.1234
adasa	-12.1234
congresso	-12.1239
lucas	-12.1239
cidades	-12.124
hospitalar	-12.1243
documento	-12.1246
▁proj	-12.1251
terracap	-12.1256
07-4,	-12.1259
cbmdf	-12.1259
hospitalares	-12.1265
exonerar	-12.1267
▁pg	-12.1267
agente	-12.1271
abertura	-12.1276
licitação	-12.1277
slu	-12.1281
federal	-12.1284
epom	-12.1307
▁701	-12.1321
▁"...1.5	-12.1326
0.39	-12.1347
7118	-12.1353
▁2018-62	-12.1361
nési	-12.1365
82-9	-12.1374
▁gead	-12.1377
9001	-12.1377
6217,	-12.1389
66-2,	-12.139
tomia	-12.1392
1.918	-12.1394
507	-12.1405
436	-12.1413
▁laz	-12.1417
icial	-12.1473
0101;	-12.1482
243,	-12.1483
1259	-12.1484
vidos	-12.1491
8.84	-12.1493
1-04,	-12.1495
3-8	-12.1523
band	-12.1543
0,05	-12.1543
▁licita	-12.1572
.122.6001.8517.9	-12.1581
▁acessa	-12.1582
ânio	-12.1603
▁35.8	-12.1605
▁061.036.3	-12.1614
.999,	-12.1614
▁0400-00	-12.1617
5035	-12.1625
▁cast	-12.1631
.092	-12.1717
00421	-12.1767
99-7	-12.1774
4578	-12.1777
jud	-12.1805
1.689.4	-12.1813
▁11.5	-12.1832
343,	-12.1841
▁38.07	-12.1848
916	-12.1854
▁00060.0009	-12.1862
▁16587	-12.1876
▁prosseguir	-12.1907
▁00060-00574	-12.1913
.01.201	-12.2018
programação	-12.2112
▁273.57	-12.2146
regulamentado	-12.2158
▁44.0	-12.2159
.175	-12.2167
▁1.300	-12.2171
▁6.9	-12.2187
▁1439.	-12.2204
▁221.2	-12.2285
cionais	-12.2336
▁anexa	-12.2384
etores	-12.2389
fac	-12.2422
156,	-12.2443
▁061.036.	-12.2446
▁00040	-12.2465
▁designad	-12.2474
086	-12.2514
rmino	-12.254
▁141012	-12.2565
piri	-12.2586
▁adequa	-12.2611
▁0061	-12.2616
tatais	-12.262
225,	-12.262
minadas	-12.2627
umen	-12.2635
ático	-12.2665
9.88	-12.2671
47,4	-12.2699
▁00014	-12.2706
ostom	-12.2713
▁feli	-12.2752
.294	-12.2774
340,	-12.2808
▁calculad	-12.2821
.353	-12.2831
tro	-12.284
urf	-12.2871
amila	-12.2911
nilton	-12.2913
.335	-12.2924
▁197129	-12.2947
.861,	-12.2961
▁06.122.6	-12.2977
00422	-12.2982
roz	-12.3008
952,	-12.3013
▁00050-00057	-12.3057
▁2,5	-12.3078
▁39.45	-12.3131
▁0070	-12.3132
dv	-12.3146
ipir	-12.3184
atada	-12.3187
▁270.4	-12.32
▁fix	-12.3216
611,	-12.3232
nha	-12.3233
.536	-12.3238
▁1.661.2	-12.3249
20-000	-12.3252
aldemir	-12.3284
logia	-12.3289
▁193.7	-12.33
▁00060-0007	-12.3304
zen	-12.332
34.78	-12.3333
00417	-12.339
▁39.133	-12.3413
▁bian	-12.346
500,00	-12.3462
tante	-12.3468
▁condu	-12.3473
▁relato	-12.3484
1315	-12.3488
utam	-12.3505
▁vag	-12.3537
▁homolog	-12.3549
ntia	-12.3598
35-8	-12.3603
▁preenchi	-12.3611
.846	-12.3629
tarem	-12.363
ificado	-12.3631
ellen	-12.3641
thal	-12.3641
scara	-12.3649
▁reserv	-12.3658
.998-3	-12.3662
▁00060.	-12.3662
9.84	-12.3689
▁estabeleci	-12.3693
▁jair	-12.3707
▁empregad	-12.3707
▁feminin	-12.3709
▁encar	-12.3709
▁complex	-12.3712
▁bancári	-12.3713
.748,	-12.3713
▁ribeir	-12.3717
.694	-12.3724
▁acolh	-12.3725
▁entregue	-12.3728
▁cabo	-12.3734
▁mencionado	-12.3735
▁envelope	-12.3736
▁ausência	-12.3737
íci	-12.3745
▁barro	-12.3747
▁august	-12.3749
ajustado	-12.3749
cionista	-12.3754
▁tomad	-12.3755
▁defini	-12.3756
▁expedi	-12.376
▁3213-	-12.376
▁telefoni	-12.3764
▁roch	-12.3765
▁cientifi	-12.3767
2,60	-12.3769
lyss	-12.377
cimar	-12.3775
▁00094-00011	-12.3777
.833	-12.378
00050-00	-12.3786
▁reinstaura	-12.3798
ércio	-12.3798
304.	-12.3799
▁00080-0020	-12.38
▁franci	-12.3801
▁côn	-12.3801
5.740	-12.3803
▁37.94	-12.3804
entar	-12.3804
▁médi	-12.3804
carimbo	-12.3805
▁kel	-12.3805
▁83.4	-12.3806
▁envolv	-12.3806
eletivo	-12.3809
▁obed	-12.381
▁correspond	-12.3813
móvel	-12.3813
▁modifica	-12.3815
▁fracassa	-12.3816
▁capacita	-12.3816
▁suplementa	-12.3816
▁contribui	-12.3816
▁coordena	-12.3816
cessar	-12.3819
bilidade	-12.3819
▁xxv	-12.382
▁0080-	-12.382
▁acompanham	-12.3822
▁frank	-12.3822
▁comuni	-12.3823
raças	-12.3823
▁implant	-12.3823
.220,	-12.3823
▁00401-	-12.3823
▁superintenden	-12.3824
▁convert	-12.3824
.02.19	-12.3824
téria	-12.3824
presencial	-12.3824
perfei	-12.3824
ceptor	-12.3825
▁necessi	-12.3825
▁0007-	-12.3825
▁prime	-12.3825
bitschek	-12.3825
ratórias	-12.3825
▁10303620240	-12.3825
▁cân	-12.3825
▁83.550-1	-12.3825
▁mpdft	-12.3825
▁subordinados	-12.3825
▁0131905-1	-12.3825
▁103036202281	-12.3825
▁125.285-2	-12.3825
▁147.341-7	-12.3825
▁240.960-7	-12.3825
▁275.001.	-12.3825
▁combustível	-12.3825
▁contábeis	-12.3825
▁daibert	-12.3825
▁damaceno	-12.3825
▁desenvolvido	-12.3825
▁estatutári	-12.3825
▁holding	-12.3825
▁inventaria	-12.3825
▁originário	-12.3825
▁periódic	-12.3825
▁polietileno	-12.3825
▁ratifique	-12.3825
▁sinimbu	-12.3825
▁verlindo	-12.3825
.11.1980	-12.3825
.12.2009	-12.3825
02.015.	-12.3825
0301620242085612	-12.3825
1.971.	-12.3825
10211686,	-12.3825
2.366-9,	-12.3825
238604-6	-12.3825
6.2018.8.07.	-12.3825
baixa	-12.3825
compartilhamento	-12.3825
constituído	-12.3825
domésticos	-12.3825
ografia	-12.3825
system	-12.3825
▁-0063000	-12.3825
▁00060.0024	-12.3825
▁0019-77,	-12.3825
▁0061-03064	-12.3825
▁0098-00	-12.3825
▁060.004.	-12.3825
▁060.006.	-12.3825
▁1.200.30	-12.3825
▁1.689.377-8	-12.3825
▁112.0002905	-12.3825
▁174.627-8	-12.3825
▁209.572-6	-12.3825
▁223.896-9	-12.3825
▁271.419-1	-12.3825
▁284-00038	-12.3825
▁36.753.	-12.3825
▁43.719-0	-12.3825
▁438.0152	-12.3825
▁5400.006.	-12.3825
▁93.961-7	-12.3825
▁abnt	-12.3825
▁abrahã	-12.3825
▁admissibilidade	-12.3825
▁agsob	-12.3825
▁ambientais	-12.3825
▁amoxicilina	-12.3825
▁anúncios	-12.3825
▁apresentou	-12.3825
▁associados	-12.3825
▁assumpção	-12.3825
▁automaticamente	-12.3825
▁bentinho	-12.3825
▁bilhetagem	-12.3825
▁braziliense	-12.3825
▁braços	-12.3825
▁camiseta	-12.3825
▁capacete	-12.3825
▁carnavalesco	-12.3825
▁colaboração	-12.3825
▁compressa	-12.3825
▁comprobatórios	-12.3825
▁compromisso	-12.3825
▁concepção	-12.3825
▁concreto	-12.3825
▁condominia	-12.3825
▁configuração	-12.3825
▁congêneres	-12.3825
▁contraindicado	-12.3825
▁corneteiros	-12.3825
▁credenciada	-12.3825
▁crispim	-12.3825
▁custódia	-12.3825
▁córrego	-12.3825
▁domingues	-12.3825
▁empilh	-12.3825
▁empréstimo	-12.3825
▁epigraf	-12.3825
▁estacionamento	-12.3825
▁estratégica	-12.3825
▁exército	-12.3825
▁figuer	-12.3825
▁figura	-12.3825
▁fisioterapia	-12.3825
▁franceli	-12.3825
▁geraoap	-12.3825
▁ginecologia	-12.3825
▁glória	-12.3825
▁gêneros	-12.3825
▁hidrelétrica	-12.3825
▁hierárquic	-12.3825
▁hipodérmica	-12.3825
▁hvfi	-12.3825
▁igreja	-12.3825
▁informatizado	-12.3825
▁inglês	-12.3825
▁intermediação	-12.3825
▁lanche	-12.3825
▁lápis	-12.3825
▁mamógrafo	-12.3825
▁manuais	-12.3825
▁meirelles	-12.3825
▁millennium	-12.3825
▁mobilização	-12.3825
▁mrosc	-12.3825
▁músicos	-12.3825
▁networ	-12.3825
▁obtiver	-12.3825
▁oriunda	-12.3825
▁paternidade	-12.3825
▁pecúnia	-12.3825
▁performance	-12.3825
▁periféric	-12.3825
▁personalizada	-12.3825
▁plaquet	-12.3825
▁ponciano	-12.3825
▁pregões	-12.3825
▁privado	-12.3825
▁psicossocial	-12.3825
▁psiquiatria	-12.3825
▁quiosque	-12.3825
▁revelia	-12.3825
▁salgado	-12.3825
▁serafim	-12.3825
▁simplificado	-12.3825
▁simplificação	-12.3825
▁sisgepat	-12.3825
▁sortead	-12.3825
▁struck	-12.3825
▁terraplenage	-12.3825
▁tradicional	-12.3825
▁vanderlei	-12.3825
▁wendel	-12.3825
▁época	-12.3825
5.496,00	-12.3825
switch	-12.3825
▁0053.001.	-12.3825
▁03.495.	-12.3825
▁16583515	-12.3825
▁263.927-	-12.3825
▁438.0151	-12.3825
▁83.359-2	-12.3825
▁aprecia	-12.3825
▁caracteriza	-12.3825
▁cirilo	-12.3825
▁desconto	-12.3825
▁desenho	-12.3825
▁emulsão	-12.3825
▁lançado	-12.3825
▁mansões	-12.3825
▁ociosos	-12.3825
▁perícia	-12.3825
▁seguida	-12.3825
▁stpc	-12.3825
▁sustentação	-12.3825
142-9,	-12.3825
ouche	-12.3825
séptic	-12.3825
▁0150-001	-12.3825
▁176.400-4	-12.3825
▁195.000.0	-12.3825
▁242.474-6	-12.3825
▁264.210-7	-12.3825
▁3190-555	-12.3825
▁417.000.	-12.3825
▁82.233-7	-12.3825
▁barcelo	-12.3825
▁diniz	-12.3825
▁dâmaso	-12.3825
▁estimada	-12.3825
▁malaquias	-12.3825
▁mangabeira	-12.3825
▁odontológica	-12.3825
▁prisiona	-12.3825
▁reabre	-12.3825
▁renascer	-12.3825
▁seleciona	-12.3825
▁sequência	-12.3825
americano	-12.3825
08.667	-12.3825
7.394,	-12.3825
hvfe	-12.3825
ibrae	-12.3825
rrinolaringologi	-12.3825
▁1.689.416-2	-12.3825
▁10122600	-12.3825
▁182.692-1	-12.3825
▁208.491-0	-12.3825
▁273.733-7	-12.3825
▁300.887-8	-12.3825
▁batalh	-12.3825
▁dgf	-12.3825
▁diversidade	-12.3825
▁horizontal	-12.3825
▁laboratorio	-12.3825
corrê	-12.3825
elchior	-12.3825
stfc	-12.3825
▁13.609	-12.3825
▁1710214	-12.3825
▁carri	-12.3825
▁descarta	-12.3825
▁hemoc	-12.3825
▁honda	-12.3825
▁museu	-12.3825
▁protesto	-12.3825
▁purifica	-12.3825
▁graduad	-12.3825
.421.6211.2	-12.3825
▁amauri	-12.3825
▁sintétic	-12.3825
.941-1,	-12.3825
1.065-0	-12.3825
6.571-	-12.3825
café	-12.3825
▁468.0001	-12.3825
▁classificado	-12.3825
▁retificações	-12.3825
▁fraga	-12.3825
▁girao	-12.3825
▁marcondes	-12.3825
rôni	-12.3825
▁449052	-12.3825
▁desconsiderado	-12.3825
▁usufruída	-12.3825
▁verba	-12.3825
▁1.658.4	-12.3825
▁0197-001	-12.3825
▁33.50.4	-12.3825
▁setoriais	-12.3825
▁afins	-12.3825
10.233	-12.3825
ocular	-12.3825
stefani	-12.3825
▁previc	-12.3825
▁1.782	-12.3825
▁125.89	-12.3825
▁resumo	-12.3825
▁increment	-12.3825
tidão	-12.3825
udente	-12.3825
▁151011	-12.3825
0161104	-12.3825
▁269.56	-12.3825
▁alden	-12.3825
▁naturais	-12.3825
▁sobreira	-12.3825
ônio	-12.3825
▁ataíde	-12.3825
▁fascal	-12.3825
▁habitacionais	-12.3825
▁gratuito	-12.3825
▁proveniente	-12.3825
▁151020	-12.3825
▁canedo	-12.3825
▁word	-12.3825
▁negreiros	-12.3825
▁50.249	-12.3825
▁convencional	-12.3825
▁imagen	-12.3825
▁269.684-3	-12.3825
▁improced	-12.3825
tomá	-12.3825
▁franca	-12.3825
▁07.811	-12.3825
▁sobral	-12.3825
▁33.90.33.0	-12.3825
6.770-0,	-12.3825
▁1.442.	-12.3825
▁nonô	-12.3826
▁fibra	-12.3826
6.494	-12.3826
▁boaventura	-12.3826
▁17.512.6210.18	-12.3826
.856-0,	-12.3826
.147-1,	-12.3826
▁270.464-1	-12.3826
▁adalbert	-12.3826
▁18.955	-12.3826
▁algum	-12.3826
▁smart	-12.3826
=0,8	-12.3826
▁16.409	-12.3826
▁refrigeração	-12.3826
hospitais	-12.3826
.087-5	-12.3826
▁01.05.	-12.3826
2.228.	-12.3826
▁climática	-12.3826
▁convers	-12.3826
''	-12.3826
▁procidades	-12.3826
suposto	-12.3826
▁2018-86;	-12.3826
.825.	-12.3826
▁atraso	-12.3826
oriz	-12.3826
orizados	-12.3826
▁gleic	-12.3826
.451.6208.1	-12.3826
intima	-12.3826
▁kubo	-12.3826
▁lize	-12.3826
▁ficha	-12.3826
81-8	-12.3826
▁0113-010	-12.3826
▁eudes	-12.3826
▁15265	-12.3826
▁215.51	-12.3826
▁0007-07	-12.3826
▁040.000.5	-12.3826
▁saíd	-12.3826
▁transcrição	-12.3826
9.571	-12.3826
▁2019-68.	-12.3826
▁ideias	-12.3826
.358-5,	-12.3826
.788,00	-12.3826
yben	-12.3826
▁adiante	-12.3826
▁0113-011	-12.3827
ghaa	-12.3827
▁questão	-12.3827
▁paulino	-12.3827
▁paraná	-12.3827
rães	-12.3827
▁teologia	-12.3827
▁salv	-12.3827
4.766	-12.3827
▁3348-8	-12.3827
▁obede	-12.3827
▁presencialmente	-12.3827
▁91.30	-12.3827
.791-	-12.3827
▁corporativ	-12.3827
▁daquele	-12.3827
9.2018.8.07.0016	-12.3827
▁referend	-12.3827
▁coloca	-12.3827
90.51	-12.3827
▁converter	-12.3827
6.023	-12.3827
▁ácido	-12.3827
▁ferraz	-12.3827
ruska	-12.3827
▁odontologi	-12.3827
002.8517.0006	-12.3827
▁triagem	-12.3827
dras	-12.3827
▁caiana	-12.3827
fíci	-12.3827
3.009.	-12.3827
4.667	-12.3828
▁distr	-12.3828
lorenzo	-12.3828
▁cometi	-12.3828
telecomunicações	-12.3828
02.579	-12.3828
65,81	-12.3828
.531-	-12.3828
▁vega	-12.3828
▁milani	-12.3828
mínio	-12.3828
▁2019-37,	-12.3828
gpc	-12.3828
▁coletor	-12.3828
▁fidel	-12.3828
▁german	-12.3828
▁frankli	-12.3828
▁lenil	-12.3828
.199,8	-12.3828
▁lorran	-12.3828
▁2014,139.000	-12.3828
▁(167	-12.3828
▁20.07	-12.3829
oluna	-12.3829
ând	-12.3829
valpro	-12.3829
▁braul	-12.3829
▁obedecid	-12.3829
▁reservatório	-12.3829
▁clemil	-12.3829
acjur	-12.3829
▁46.8	-12.3829
▁pneu	-12.3829
0.545	-12.3829
▁sodr	-12.3829
▁elegeu	-12.3829
berth	-12.383
landia	-12.383
9-0;	-12.383
ília	-12.383
▁cintra	-12.383
▁1.402.	-12.383
▁1.661.78	-12.383
▁clementino	-12.383
▁(168	-12.383
▁loba	-12.383
.220,00	-12.383
▁00050-00061	-12.383
▁subchefe	-12.3831
▁284.000.	-12.3831
▁averbados	-12.3831
▁0071-	-12.3831
▁eleva	-12.3831
▁precis	-12.3831
▁54.06	-12.3831
rgel	-12.3831
▁proporciona	-12.3831
881-3,	-12.3831
237-9,	-12.3832
dôn	-12.3832
.817,	-12.3832
▁1.684.	-12.3832
▁clé	-12.3832
▁00060-000107	-12.3832
.086.	-12.3833
trauma	-12.3833
▁166106	-12.3833
lamentos	-12.3833
▁veron	-12.3833
▁250.44	-12.3833
1.534	-12.3833
▁ilde	-12.3833
23,26	-12.3833
92-0	-12.3833
▁00150-0001070	-12.3833
.966	-12.3834
.798	-12.3834
outorgante	-12.3834
▁conceito	-12.3834
80030	-12.3834
▁147.16	-12.3835
▁276.001.2	-12.3835
5.744	-12.3835
▁inteira	-12.3835
▁modificada	-12.3835
1.609-	-12.3835
▁peter	-12.3835
▁virgi	-12.3835
▁pagas	-12.3835
▁oferecido	-12.3835
▁147.29	-12.3835
▁055-00	-12.3836
▁drs	-12.3836
▁09:30	-12.3836
▁donizett	-12.3836
escs	-12.3836
atif	-12.3837
2.388.	-12.3837
▁718.	-12.3837
9352)	-12.3837
▁geron	-12.3837
▁0001-07,	-12.3837
etto	-12.3837
352.50	-12.3837
2.633	-12.3837
lanca	-12.3838
▁comparecerem	-12.3838
▁meire	-12.3838
cival	-12.3838
rofe	-12.3838
4336,	-12.3838
▁27.11.201	-12.3838
▁267.73	-12.3838
▁24.08	-12.3838
▁204.000,00	-12.3838
▁73.2	-12.3838
▁modul	-12.3838
kawa	-12.3839
▁arrematação	-12.3839
▁00060.00080	-12.3839
▁17:30	-12.3839
▁24.84	-12.3839
9.631-	-12.384
92.92	-12.384
ervi	-12.384
▁193.2	-12.384
▁tav	-12.384
tuito	-12.384
▁ccs	-12.384
▁00060-005717	-12.384
telli	-12.3841
oxaci	-12.3841
▁07092	-12.3841
▁cdp	-12.3841
onsab	-12.3842
▁higi	-12.3842
▁alen	-12.3842
1.780	-12.3842
▁convalidação	-12.3842
pead	-12.3842
▁14308	-12.3843
▁198.4	-12.3843
▁7.71	-12.3843
471.00	-12.3843
▁abc	-12.3843
▁(1725	-12.3843
▁malt	-12.3844
▁abdo	-12.3844
▁277.000	-12.3844
▁438.01547	-12.3844
32-4,	-12.3844
▁171.39	-12.3845
34.503-	-12.3845
▁9.503	-12.3845
▁marle	-12.3845
▁(1720	-12.3846
▁186.2	-12.3846
▁localização	-12.3846
▁49.5	-12.3846
lética	-12.3846
▁farmaceuticos	-12.3847
▁haia	-12.3847
▁00060-005810	-12.3847
▁qualificad	-12.3847
lange	-12.3848
98-2,	-12.3849
▁00060-00567	-12.3849
.698.	-12.3849
9168,	-12.3849
▁luna	-12.385
▁232.5	-12.385
▁notificada	-12.385
▁00080-00203	-12.3851
.671-1	-12.3851
.492,	-12.3851
.544	-12.3852
▁198.1	-12.3852
▁2018-01.	-12.3853
▁390.	-12.3853
.751,	-12.3853
▁0001-11,	-12.3854
▁2018-01;	-12.3854
▁199.6	-12.3855
49-0,	-12.3855
xlv	-12.3856
▁30.73	-12.3856
▁79.7	-12.3856
cava	-12.3856
3633	-12.3856
▁jornais	-12.3857
1.507	-12.3857
▁00060.00097	-12.3859
▁verificar	-12.3859
▁1610107	-12.3859
▁albi	-12.3859
▁054.000.4	-12.386
chel	-12.386
.679.	-12.386
▁juris	-12.386
▁everson	-12.3861
.651-7	-12.3861
88-2,	-12.3862
▁0002-3	-12.3862
5.237	-12.3862
.878-3	-12.3862
▁00150.	-12.3864
16-5,	-12.3866
▁preto	-12.3866
alidade	-12.3866
▁442.	-12.3866
ratto	-12.3867
conip	-12.3868
84-3,	-12.3869
▁054.000.2	-12.387
▁tacian	-12.3871
▁josele	-12.3871
▁273.69	-12.3873
▁1.406.59	-12.3874
803-6	-12.3874
▁8503	-12.3875
▁tarci	-12.3875
▁01760	-12.3875
.410,	-12.3875
chinel	-12.3876
▁minim	-12.3877
aux	-12.3877
▁catiônic	-12.3877
4.252	-12.3877
▁amaro	-12.3877
▁00410-00013	-12.3877
49039	-12.3878
.352	-12.3878
.580	-12.3878
30-2,	-12.3879
6561	-12.388
▁lind	-12.3881
.076,	-12.3881
▁ocorre	-12.3881
1347	-12.3882
▁2019-33	-12.3883
▁vidi	-12.3883
13-9,	-12.3885
▁tecla	-12.3886
▁3.3.90.39	-12.3886
▁2019-17	-12.3886
▁2019-44	-12.3886
▁2014-00	-12.3887
20.79	-12.3888
2.692-	-12.3888
▁0,5	-12.3888
▁vilma	-12.3889
▁josiv	-12.389
▁60.000,00	-12.3892
chav	-12.3894
6886	-12.3894
▁16853	-12.3895
▁evil	-12.3895
06.29	-12.3896
lamina	-12.3897
▁96.9	-12.3899
8.97	-12.39
▁36.10	-12.39
01-4,	-12.39
▁14114	-12.3901
00.07	-12.3901
▁consideram	-12.3902
73.1	-12.3902
strita	-12.3904
46-8	-12.3905
.291-	-12.3905
▁00060-00537	-12.3906
.790-2,	-12.3907
45.91	-12.3908
▁00060-00069	-12.3911
▁glic	-12.3911
▁00060-00533	-12.3912
igno	-12.3912
843,	-12.3915
consistentes	-12.3917
odont	-12.3919
▁103.2	-12.3919
67086	-12.392
▁pino	-12.392
▁1435.5	-12.3921
6-8	-12.3925
▁00090-0001	-12.3928
▁robst	-12.3931
8.851	-12.3934
dows	-12.3935
41-7,	-12.3935
▁plant	-12.3938
73-8,	-12.3938
6069	-12.3945
6.216	-12.3946
▁142.000.	-12.3947
▁mesa	-12.3948
▁listado	-12.395
aranha	-12.3954
22,23	-12.3954
▁304.10	-12.3955
19887	-12.3963
3384	-12.3963
5256	-12.3964
▁ronald	-12.3965
▁enviado	-12.3968
▁0001-23	-12.3973
▁2016-00	-12.3976
0.448	-12.398
▁178.4	-12.3983
▁00871	-12.3987
▁00060.00490	-12.3989
▁aleg	-12.399
▁158.34	-12.3998
wan	-12.4001
alum	-12.4006
ssio	-12.4013
6.176	-12.4014
1.44	-12.4015
9530	-12.4023
fixo	-12.4023
▁172.1	-12.4025
4.2018.8.07.0018	-12.4026
.705-	-12.4026
.934-	-12.4027
▁arrecadado	-12.4029
-24.	-12.4032
zola	-12.4039
▁preserv	-12.4048
102.9	-12.4052
▁274.0	-12.4058
700,	-12.4058
zana	-12.406
7.106	-12.4061
▁biológic	-12.4071
▁080.007	-12.4072
0517	-12.4073
54-9	-12.4075
▁38.246	-12.408
▁assist	-12.4081
▁226.0	-12.4088
▁rudin	-12.409
5086	-12.4097
6.371-	-12.4099
530-0	-12.4109
150.000,00	-12.4129
▁15012	-12.4135
▁koll	-12.415
▁2019-89	-12.4155
65-8,	-12.4174
1856	-12.4178
.386-	-12.4178
1.368	-12.4178
▁273.87	-12.4185
▁originada	-12.419
▁aud	-12.4198
311-	-12.4223
.370,00	-12.4235
4325	-12.4235
wy	-12.4249
▁2.0	-12.4252
68-5,	-12.4264
0197-	-12.4265
▁5.59	-12.4271
▁092.0073	-12.4275
▁00060-0038	-12.4284
7.896,	-12.4292
▁char	-12.4309
abal	-12.4331
icat	-12.4354
4.001	-12.4356
42-3	-12.4359
.876	-12.4372
96-4	-12.4374
.259-	-12.438
ndamento	-12.4384
▁elege	-12.4388
▁polític	-12.4392
éssi	-12.4394
▁prop	-12.4399
64-1,	-12.4399
1.140	-12.4406
ugal	-12.4408
▁1.673.7	-12.4416
antas	-12.4439
4.145	-12.4439
88-0,	-12.445
.376-	-12.4451
1928	-12.4467
papa	-12.4468
9.171-	-12.4474
6.88	-12.4523
▁0002-0	-12.4531
▁orden	-12.4533
▁00060-00577	-12.4539
▁00060-0011	-12.4575
▁3.26	-12.4581
▁cour	-12.4584
▁aferi	-12.4588
▁07.6	-12.4595
001-24.	-12.4602
.135	-12.4604
▁consolidad	-12.4606
itados	-12.4622
10-5,	-12.4628
▁zor	-12.4633
▁37.05	-12.4637
▁00060-0039	-12.464
.239	-12.4641
perf	-12.4642
▁00060-00437	-12.4686
▁73.0	-12.4696
ulog	-12.4719
2020;	-12.4722
▁00050-000578	-12.4736
46-0	-12.4742
.871	-12.4775
uly	-12.479
1.681.	-12.4794
▁guari	-12.4809
▁00060.0004	-12.4821
2.508-	-12.4824
uíz	-12.4829
ture	-12.4837
▁215.7	-12.4837
6.437	-12.4839
▁14438	-12.486
adapta	-12.4875
▁cati	-12.4885
.068-	-12.4886
1-49	-12.4915
0010565	-12.4921
1-18	-12.4923
.010-	-12.4941
▁1.675.	-12.4941
68.7	-12.4942
.004-	-12.4946
▁agostinh	-12.4964
▁50.9	-12.4978
▁17.50	-12.4994
inati	-12.4995
▁giovann	-12.4995
.6.1	-12.5001
▁00060-0033	-12.5019
00425	-12.5024
136,	-12.5033
1308	-12.5034
.133,6	-12.5034
.582-	-12.5052
47-1	-12.5071
8,70	-12.5075
▁adotad	-12.5095
▁jani	-12.5119
etização	-12.5132
7.865	-12.516
ivani	-12.5163
.441-	-12.5224
▁tole	-12.5231
venção	-12.5233
▁1410127	-12.5266
.122.600	-12.5278
22-0,	-12.5288
▁00054-0002	-12.5293
inco	-12.5313
inger	-12.532
aptação	-12.5322
▁109.0	-12.5339
off	-12.5343
20,00	-12.5353
▁0113-005	-12.5388
38.93	-12.5403
9051	-12.5418
30.000,00	-12.543
trí	-12.5432
139.000	-12.5434
16,00	-12.5453
1737	-12.5458
▁deslocam	-12.5459
fran	-12.5487
21479	-12.5524
▁274.000.2	-12.5543
951,	-12.5571
394.	-12.5584
▁913	-12.5597
62-1,	-12.56
▁2011..."	-12.5606
.136.3	-12.5679
57-6	-12.568
equivale	-12.5731
.028	-12.5795
▁50.1	-12.5795
45-8,	-12.5832
53-3,	-12.5833
▁reciclado	-12.5895
.140,	-12.594
.01.2018.	-12.5985
6-1,	-12.604
00060-005	-12.6082
40-5,	-12.6088
55-6	-12.6094
4,40	-12.6107
ilva	-12.6133
legislativo	-12.6168
israel	-12.6181
fábi	-12.6192
leiloeiro	-12.62
gás	-12.6203
braz	-12.6206
mídia	-12.6208
está	-12.6208
dpdf	-12.6208
equivalente	-12.6209
officio	-12.6215
substituta	-12.6238
conhecimento	-12.6242
procurador	-12.6247
andre	-12.6251
jorge	-12.6257
convocação	-12.626
direito	-12.6264
cedente	-12.6267
estatuto	-12.627
fatos	-12.6271
receita	-12.6276
relacionado	-12.628
financeira	-12.6283
médica	-12.6284
condições	-12.6288
▁marti	-12.6289
apresentar	-12.6291
classificação	-12.6292
núcleo	-12.6293
financeiro	-12.6294
horário	-12.6294
substituto	-12.6295
luiz	-12.6296
soares	-12.6297
fazenda	-12.6297
conceder	-12.6298
informações	-12.6299
modalidade	-12.6299
ordenador	-12.63
contados	-12.6301
32.598	-12.6302
quinquênio	-12.6303
coordenação	-12.6304
saúde	-12.6305
brasília	-12.6306
artigo	-12.6306
resolve	-12.6307
à	-12.6307
portaria	-12.6308
▁197125	-12.6314
5,46	-12.6331
▁171.5	-12.6331
21.29	-12.6367
.502-	-12.6393
cargos	-12.6425
▁2019-41	-12.6475
.09.20	-12.6478
elmo	-12.6489
▁berg	-12.6497
▁00060-00541	-12.6509
0528	-12.6509
▁sabi	-12.6543
.911-	-12.6731
ple	-12.6775
▁00060.0053	-12.6779
▁04.122.6	-12.6789
122.6001.8517.97	-12.6792
▁36.0	-12.6925
1.700	-12.6999
4576	-12.7008
6.351	-12.7123
▁deliber	-12.7155
▁giovan	-12.7166
▁14.500,0	-12.7216
1.673.2	-12.7251
.684-	-12.7355
▁permiti	-12.7374
▁claudi	-12.7376
▁divulga	-12.7388
▁uran	-12.745
▁guard	-12.7452
▁83.74	-12.7464
centraliza	-12.7548
05846	-12.7566
▁responde	-12.7606
▁deserto	-12.7612
▁197120	-12.7626
nutri	-12.7652
▁consolida	-12.7666
legis	-12.7671
68.75	-12.7694
enzal	-12.7709
.658.0	-12.7712
▁descrit	-12.7786
177.6	-12.7811
palm	-12.7862
líticos	-12.7872
▁design	-12.7876
▁nayan	-12.7983
▁efetivad	-12.7997
linhar	-12.8011
269.1	-12.804
67.43	-12.8075
rragens	-12.8084
▁incorpor	-12.8089
61.80	-12.8093
1.281-	-12.8133
ileu	-12.817
adril	-12.8247
▁patric	-12.8275
3.873	-12.8277
rmando	-12.8283
▁advogad	-12.8297
10.55	-12.833
lly	-12.8338
creati	-12.836
legada	-12.8363
▁comutad	-12.8392
▁glauc	-12.8402
951-3	-12.8409
▁conferid	-12.8448
▁inscri	-12.8495
▁branc	-12.8497
uze	-12.8534
sumido	-12.8549
▁156.9	-12.8581
▁mantid	-12.8583
gração	-12.8587
▁11.101.000.000-	-12.8589
▁instalad	-12.8602
57-1	-12.8632
10.500	-12.8639
▁impost	-12.8647
méd	-12.8672
▁assegur	-12.8676
▁consistente	-12.8678
14-4	-12.8683
▁subscre	-12.8683
▁cirurgiã	-12.8703
▁extraordinári	-12.8705
▁manej	-12.8706
▁orland	-12.8709
▁arquiv	-12.8711
nual	-12.8711
▁44.90.51	-12.8711
▁antôni	-12.8717
▁carvalh	-12.8717
.598-	-12.8722
▁3.3.90.3	-12.8727
▁alíquota	-12.8729
▁reparo	-12.8729
▁elétrico	-12.8731
3.790	-12.8732
.10.2018,	-12.8734
▁fagunde	-12.8736
▁diverso	-12.8739
▁impedimento	-12.874
▁constant	-12.874
00054-	-12.8744
94.11	-12.8745
12-5	-12.8746
▁1.406.5	-12.8747
▁certifica	-12.875
▁acusatóri	-12.876
▁documenta	-12.876
▁economi	-12.8761
▁asfáltic	-12.8763
▁voluntári	-12.8764
.2013	-12.8764
▁secretari	-12.8764
▁logístic	-12.8765
▁omiss	-12.8769
.479,	-12.877
.12.201	-12.8772
▁helen	-12.8773
entivos	-12.8773
concluíd	-12.8775
7.914-	-12.8779
▁habilita	-12.8785
ilitar	-12.8785
.901.	-12.8786
▁269.6	-12.8789
kman	-12.8789
▁circula	-12.879
▁inclui	-12.8794
11.760	-12.8794
▁438.0154	-12.8794
▁suspende	-12.8799
instrument	-12.8799
▁01.02.	-12.88
▁10.12.	-12.8802
érico	-12.8803
▁124.9	-12.8807
0050-00	-12.8807
ì	-12.8807
▁oferec	-12.8808
emori	-12.8809
018-84	-12.881
▁compatíve	-12.8811
6.291	-12.8811
▁font	-12.8812
001-41	-12.8812
▁instaur	-12.8813
▁aquisi	-12.8814
4.733	-12.8815
9.745	-12.8816
▁melhor	-12.8816
outinho	-12.8817
▁impugna	-12.8817
torial	-12.8817
▁267.7	-12.8817
61.418	-12.8818
bricado	-12.8819
.746-	-12.8819
▁redu	-12.8819
▁qppm	-12.882
▁enquadra	-12.882
adeiras	-12.882
▁component	-12.8821
▁regimenta	-12.8821
orran	-12.8822
▁circuns	-12.8822
▁00112-000	-12.8823
▁23.01.	-12.8823
carregad	-12.8823
enúncia	-12.8823
spectiva	-12.8823
▁treina	-12.8824
▁apostila	-12.8824
.358-	-12.8824
9-7;	-12.8824
▁1380034	-12.8824
▁princip	-12.8824
scriminado	-12.8824
▁consiste	-12.8824
▁eletric	-12.8825
ológicos	-12.8825
-000312	-12.8825
▁eletrôn	-12.8825
▁penitenci	-12.8825
▁assisten	-12.8825
atorze	-12.8825
▁benefici	-12.8825
primid	-12.8825
upav	-12.8825
métri	-12.8825
comprasgover	-12.8825
ícula	-12.8825
▁103026202	-12.8825
êndio	-12.8825
▁133.126-	-12.8825
.440.3	-12.8825
22.204.013.021-5	-12.8825
ebserh	-12.8825
posições	-12.8825
▁0,8415	-12.8825
▁0012-63	-12.8825
▁1.657.641-1	-12.8825
▁1.672.311-2	-12.8825
▁1.678.857-5	-12.8825
▁16872153	-12.8825
▁180.260-	-12.8825
▁53,0700)	-12.8825
▁82.292-	-12.8825
▁aeronáutica	-12.8825
▁atribuído	-12.8825
▁construir	-12.8825
▁consumíveis	-12.8825
▁cooperlimpo	-12.8825
▁coorace	-12.8825
▁desempate	-12.8825
▁escanhoela	-12.8825
▁folgierini	-12.8825
▁indeterminado	-12.8825
▁justifica	-12.8825
▁manut	-12.8825
▁plasferro	-12.8825
▁reprografia	-12.8825
▁subsidi	-12.8825
guinho	-12.8825
tempestiva	-12.8825
ynth	-12.8825
▁00431-00010	-12.8825
▁0094-000	-12.8825
▁0141-00	-12.8825
▁0310-003	-12.8825
▁0417.000	-12.8825
▁0431-000	-12.8825
▁aposentad	-12.8825
▁argentin	-12.8825
▁exempl	-12.8825
▁figueir	-12.8825
▁retorcid	-12.8825
.07.2019	-12.8825
.131.600	-12.8825
.174.657	-12.8825
.602,30	-12.8825
.8505.87	-12.8825
.973,35	-12.8825
2.2018.8.07.0016	-12.8825
2.6001.8505.873	-12.8825
3,2800)	-12.8825
3.641-9,	-12.8825
59.898	-12.8825
83.521-	-12.8825
9.08.2018	-12.8825
astroenterologia	-12.8825
borracha	-12.8825
bên	-12.8825
capnógrafo	-12.8825
donatária	-12.8825
eyng	-12.8825
genitora	-12.8825
hematologia	-12.8825
lavanderia	-12.8825
ludovico	-12.8825
multidisciplinar	-12.8825
ofenol	-12.8825
ofugi	-12.8825
oscópica	-12.8825
profissão	-12.8825
retinoi	-12.8825
▁(16512734)	-12.8825
▁(17124	-12.8825
▁0,2400)	-12.8825
▁00020-000226	-12.8825
▁0010-95	-12.8825
▁00310-0001026	-12.8825
▁0113-01212	-12.8825
▁0113-01283	-12.8825
▁01955217,	-12.8825
▁029.004.301-86	-12.8825
▁041.001.	-12.8825
▁0710179-	-12.8825
▁1.1.16.1	-12.8825
▁1.200.062-0	-12.8825
▁1.200.269-0	-12.8825
▁1.200.277-1,	-12.8825
▁1.655.95	-12.8825
▁1.661.378-3	-12.8825
▁1.682.651-	-12.8825
▁1.686.055-1	-12.8825
▁111.000.6	-12.8825
▁112.00012.5	-12.8825
▁13.03.2015	-12.8825
▁132.139-0,	-12.8825
▁133.198-1,	-12.8825
▁133.205-8,	-12.8825
▁133.528-	-12.8825
▁137.802-3,	-12.8825
▁14,580)	-12.8825
▁14.243.6228.2	-12.8825
▁140.774-0	-12.8825
▁1401505-6..."	-12.8825
▁142.198-0,	-12.8825
▁142254-5,	-12.8825
▁146646-1,	-12.8825
▁147.217-8,	-12.8825
▁147.283-6,	-12.8825
▁15.986,00	-12.8825
▁156.131-6,	-12.8825
▁163.202,80	-12.8825
▁164.810-1	-12.8825
▁1682977-8	-12.8825
▁169.942-3,	-12.8825
▁17026422	-12.8825
▁171.224-1	-12.8825
▁171.227-6,	-12.8825
▁171.374-4	-12.8825
▁171.474-0,	-12.8825
▁171.657-3	-12.8825
▁171.921-1,	-12.8825
▁172.236-0	-12.8825
▁172.256-5,	-12.8825
▁172.477-0,	-12.8825
▁172.773-7,	-12.8825
▁172.840-7,	-12.8825
▁172.855-5,	-12.8825
▁174.146-2	-12.8825
▁174.403-8	-12.8825
▁174.418-6	-12.8825
▁175,7800	-12.8825
▁175.198-0,	-12.8825
▁182.582,80	-12.8825
▁182.583,10	-12.8825
▁19.380,00	-12.8825
▁193.682-4	-12.8825
▁197.732-4	-12.8825
▁209.958-	-12.8825
▁217.662-9,	-12.8825
▁22,0600)	-12.8825
▁22.374-3;	-12.8825
▁221.253-6	-12.8825
▁223.644-3,	-12.8825
▁224.746-1	-12.8825
▁226.088-3,	-12.8825
▁23.014,50	-12.8825
▁23.11.1981	-12.8825
▁240.593-8	-12.8825
▁240.941-0	-12.8825
▁242.379-0	-12.8825
▁242.484-3	-12.8825
▁263.882-7,	-12.8825
▁264.138-0	-12.8825
▁264.172-0	-12.8825
▁264.179-8	-12.8825
▁269.810-2	-12.8825
▁271.205-9	-12.8825
▁272.339-5;	-12.8825
▁272.990-3	-12.8825
▁272.991-1;	-12.8825
▁273.040-5	-12.8825
▁279.000.09	-12.8825
▁28.03.1985	-12.8825
▁28.04.201	-12.8825
▁3.064,90	-12.8825
▁30.04.1990	-12.8825
▁310.00225	-12.8825
▁3312-2017:	-12.8825
▁33800346	-12.8825
▁34.939,80	-12.8825
▁38.735,10	-12.8825
▁39.056-9,	-12.8825
▁4.4.90.52	-12.8825
▁44304111	-12.8825
▁48.305-2	-12.8825
▁5.2.38.3	-12.8825
▁55.647,70	-12.8825
▁61.144,00	-12.8825
▁7**.3*9.**1-15	-12.8825
▁72.020-111	-12.8825
▁81.484-9	-12.8825
▁91.322-7,	-12.8825
▁91.983-7	-12.8825
▁92.219-6	-12.8825
▁92.378,50	-12.8825
▁99912-6897	-12.8825
▁acrílic	-12.8825
▁acupuntura	-12.8825
▁aluguel	-12.8825
▁arranjos	-12.8825
▁atorvastatina	-12.8825
▁audiotech	-12.8825
▁autenticação	-12.8825
▁autenticidade	-12.8825
▁barboza	-12.8825
▁bartolomeu	-12.8825
▁biopsia	-12.8825
▁bloque	-12.8825
▁bonifácio	-12.8825
▁bonsucesso	-12.8825
▁botij	-12.8825
▁bulgue	-12.8825
▁calçadas	-12.8825
▁cartazes	-12.8825
▁cartucho	-12.8825
▁catarina	-12.8825
▁catering	-12.8825
▁cedro	-12.8825
▁científica	-12.8825
▁cipriano	-12.8825
▁cirúrgico	-12.8825
▁colaboradora	-12.8825
▁colorado	-12.8825
▁comissionado	-12.8825
▁companheiro	-12.8825
▁compromete	-12.8825
▁confecciona	-12.8825
▁confecções	-12.8825
▁configurar	-12.8825
▁contraindicação	-12.8825
▁contreiras	-12.8825
▁corazza	-12.8825
▁cortrap	-12.8825
▁denominação	-12.8825
▁desclassificada	-12.8825
▁desigual	-12.8825
▁disjuntores	-12.8825
▁dragea	-12.8825
▁dropes	-12.8825
▁duplicidade	-12.8825
▁endoscopia	-12.8825
▁estrangeiro	-12.8825
▁execuções	-12.8825
▁faculdade	-12.8825
▁folders	-12.8825
▁folhetos	-12.8825
▁forestiero	-12.8825
▁fortaleza	-12.8825
▁galpão	-12.8825
▁galvaniza	-12.8825
▁gerontologia	-12.8825
▁gizel	-12.8825
▁goncal	-12.8825
▁hemodiálise	-12.8825
▁ilibada	-12.8825
▁implica	-12.8825
▁imprimir	-12.8825
▁incidir	-12.8825
▁injustificad	-12.8825
▁insalubridade	-12.8825
▁interstício	-12.8825
▁investigativa	-12.8825
▁jordão	-12.8825
▁justino	-12.8825
▁kalile	-12.8825
▁kramer	-12.8825
▁lactulose	-12.8825
▁licenciar	-12.8825
▁limitada	-12.8825
▁lincoln	-12.8825
▁longarinas	-12.8825
▁luciferina	-12.8825
▁lucrativos	-12.8825
▁madureira	-12.8825
▁mangueira	-12.8825
▁mapfre	-12.8825
▁miauqmia	-12.8825
▁michil	-12.8825
▁missões	-12.8825
▁montenegro	-12.8825
▁multifunciona	-12.8825
▁mundial	-12.8825
▁mundim	-12.8825
▁myria	-12.8825
▁mãe	-12.8825
▁noronha	-12.8825
▁olivier	-12.8825
▁oriundo	-12.8825
▁outsourcing	-12.8825
▁padilha	-12.8825
▁painéis	-12.8825
▁parâmettro	-12.8825
▁pedagógica	-12.8825
▁pioneira	-12.8825
▁plástica	-12.8825
▁pneumologia	-12.8825
▁pompeu	-12.8825
▁pontualidade	-12.8825
▁posiciona	-12.8825
▁preconiza	-12.8825
▁predeterminado	-12.8825
▁prevalecer	-12.8825
▁providencie	-12.8825
▁psicóloga	-12.8825
▁psicólogo	-12.8825
▁publicitárias	-12.8825
▁questionamento	-12.8825
▁recarga	-12.8825
▁resguarda	-12.8825
▁rolantes	-12.8825
▁romulo	-12.8825
▁safweb	-12.8825
▁salgueiro	-12.8825
▁salvador	-12.8825
▁sardinha	-12.8825
▁satisfa	-12.8825
▁sentenciados	-12.8825
▁sorteio	-12.8825
§	-13.6439
]	-13.8825
[	-14.6938
ó	-14.6939
õ	-14.694
ç	-14.6941
/	-14.6942
